<unk>	0
<s>	0
</s>	0
して	-0
った	-1
した	-2
され	-3
ある	-4
する	-5
てい	-6
から	-7
こと	-8
である	-9
ている	-10
って	-11
19	-12
では	-13
ない	-14
20	-15
には	-16
として	-17
その	-18
してい	-19
られ	-20
によ	-21
された	-22
とい	-23
など	-24
この	-25
とな	-26
よう	-27
もの	-28
であ	-29
ため	-30
..	-31
にな	-32
という	-33
いて	-34
日本	-35
また	-36
ていた	-37
している	-38
それ	-39
リー	-40
これ	-41
される	-42
200	-43
ター	-44
まで	-45
10	-46
われ	-47
ール	-48
▁「	-49
ラン	-50
イン	-51
スト	-52
ック	-53
ット	-54
っている	-55
かった	-56
でも	-57
がある	-58
されている	-59
にお	-60
いた	-61
であった	-62
ーム	-63
年に	-64
なく	-65
00	-66
ート	-67
にも	-68
ること	-69
おり	-70
でき	-71
ると	-72
、「	-73
より	-74
しか	-75
とも	-76
18	-77
していた	-78
ング	-79
、19	-80
ュー	-81
ード	-82
あり	-83
なかった	-84
れた	-85
んで	-86
12	-87
との	-88
により	-89
によって	-90
ディ	-91
的な	-92
であり	-93
しい	-94
つて	-95
すること	-96
....	-97
となった	-98
▁19	-99
ティ	-100
による	-101
)、	-102
につ	-103
の中	-104
ント	-105
▁-	-106
11	-107
んだ	-108
)。	-109
れる	-110
放送	-111
時代	-112
に対	-113
ので	-114
ける	-115
られた	-116
場合	-117
られる	-118
ショ	-119
だった	-120
人の	-121
ように	-122
リア	-123
れば	-124
ライ	-125
の一	-126
とは	-127
ース	-128
しま	-129
しかし	-130
日に	-131
けて	-132
年の	-133
15	-134
において	-135
▁(	-136
への	-137
させ	-138
現在	-139
あった	-140
的に	-141
を受	-142
ような	-143
のは	-144
について	-145
プロ	-146
になった	-147
での	-148
大学	-149
リカ	-150
多く	-151
つた	-152
ました	-153
を行	-154
っていた	-155
などの	-156
なが	-157
なる	-158
16	-159
ファ	-160
ンド	-161
となる	-162
ます	-163
けた	-164
ンの	-165
える	-166
めた	-167
なら	-168
ロー	-169
めて	-170
レー	-171
世界	-172
使用	-173
バー	-174
17	-175
そう	-176
コン	-177
東京	-178
とする	-179
▁20	-180
ーク	-181
行われ	-182
さん	-183
アメ	-184
スタ	-185
と呼	-186
えた	-187
いる	-188
テレ	-189
大き	-190
を持	-191
ことが	-192
その後	-193
ップ	-194
当時	-195
ジャ	-196
アメリカ	-197
アル	-198
ながら	-199
ころ	-200
だけ	-201
を見	-202
できる	-203
ことを	-204
スの	-205
もある	-206
。19	-207
存在	-208
作品	-209
ション	-210
13	-211
学校	-212
昭和	-213
14	-214
なお	-215
後に	-216
しく	-217
れて	-218
ために	-219
ラー	-220
カー	-221
テレビ	-222
のみ	-223
キャ	-224
たち	-225
番組	-226
にある	-227
月に	-228
されて	-229
フィ	-230
取り	-231
後の	-232
になる	-233
ステ	-234
同じ	-235
タイ	-236
サー	-237
可能	-238
チャ	-239
んな	-240
。」	-241
すると	-242
日の	-243
とした	-244
シー	-245
なり	-246
です	-247
ろう	-248
どう	-249
▁200	-250
およ	-251
えて	-252
鉄道	-253
研究	-254
リン	-255
ルー	-256
シャ	-257
以降	-258
さら	-259
自分	-260
関係	-261
られている	-262
30	-263
バス	-264
国の	-265
、20	-266
利用	-267
める	-268
会社	-269
に入	-270
かり	-271
マン	-272
されていた	-273
er	-274
時間	-275
きた	-276
多い	-277
者の	-278
......	-279
まり	-280
となり	-281
これは	-282
上の	-283
年代	-284
フラン	-285
における	-286
と思	-287
および	-288
フォ	-289
ただ	-290
オー	-291
時に	-292
そして	-293
ょう	-294
シュ	-295
ほど	-296
らの	-297
ランド	-298
平成	-299
こう	-300
からの	-301
したが	-302
ルト	-303
以下	-304
地域	-305
と呼ば	-306
活動	-307
ージ	-308
考え	-309
つの	-310
に関	-311
年には	-312
ところ	-313
一般	-314
、200	-315
問題	-316
日本の	-317
ジョ	-318
うち	-319
開発	-320
ルの	-321
リス	-322
、『	-323
21	-324
ませ	-325
クラ	-326
間の	-327
必要	-328
in	-329
映画	-330
22	-331
があり	-332
――	-333
の大	-334
さらに	-335
サイ	-336
登場	-337
だが	-338
エン	-339
アン	-340
ではない	-341
開始	-342
ほか	-343
に出	-344
上げ	-345
となっている	-346
と言	-347
そこ	-348
人が	-349
に対して	-350
イツ	-351
パー	-352
りの	-353
on	-354
路線	-355
をも	-356
ッド	-357
ブル	-358
設置	-359
ウェ	-360
引き	-361
シア	-362
とき	-363
コー	-364
歴史	-365
部の	-366
or	-367
他の	-368
50	-369
」(	-370
スター	-371
ってい	-372
都市	-373
間に	-374
列車	-375
』(	-376
を発	-377
らず	-378
一方	-379
人は	-380
ドイツ	-381
からは	-382
an	-383
社会	-384
が発	-385
ニュー	-386
自動	-387
世紀	-388
ナー	-389
のが	-390
影響	-391
」「	-392
同年	-393
家の	-394
が出	-395
セン	-396
事業	-397
地方	-398
のだ	-399
リーズ	-400
主義	-401
ジェ	-402
わせ	-403
イル	-404
選手	-405
にか	-406
フェ	-407
明治	-408
意味	-409
あた	-410
23	-411
しない	-412
199	-413
になり	-414
25	-415
しており	-416
のように	-417
変更	-418
かに	-419
前に	-420
ともに	-421
通り	-422
ーン	-423
ベル	-424
ゲーム	-425
の上	-426
ものの	-427
代表	-428
オン	-429
の名	-430
シリーズ	-431
中心	-432
としては	-433
もう	-434
があった	-435
多くの	-436
▁『	-437
特に	-438
ダー	-439
結果	-440
車両	-441
のである	-442
まま	-443
れている	-444
ホーム	-445
戦争	-446
レン	-447
記録	-448
初の	-449
ことは	-450
すべ	-451
サン	-452
国際	-453
線の	-454
。「	-455
▁この	-456
アー	-457
音楽	-458
以外	-459
チーム	-460
ドラ	-461
来た	-462
と同	-463
については	-464
りに	-465
子の	-466
を受け	-467
24	-468
われる	-469
レイ	-470
位置	-471
自身	-472
文化	-473
トル	-474
が行われ	-475
試合	-476
ヴィ	-477
なか	-478
前の	-479
のです	-480
事件	-481
計画	-482
▁また	-483
の方	-484
のため	-485
000	-486
グラ	-487
いで	-488
ニア	-489
政府	-490
機関	-491
の人	-492
監督	-493
ウン	-494
のか	-495
ではなく	-496
ヴァ	-497
80	-498
ることが	-499
者は	-500
者が	-501
教育	-502
いは	-503
共に	-504
を出	-505
のような	-506
大阪	-507
内の	-508
▁概	-509
力を	-510
私は	-511
にて	-512
ポー	-513
経済	-514
ようになった	-515
開催	-516
ことから	-517
チェ	-518
ンは	-519
彼は	-520
ックス	-521
ければ	-522
ません	-523
えば	-524
としての	-525
部分	-526
構造	-527
en	-528
数の	-529
大きな	-530
ただし	-531
生活	-532
用い	-533
リーグ	-534
編成	-535
ジオ	-536
イギ	-537
起こ	-538
イス	-539
ここ	-540
を含	-541
中に	-542
までの	-543
年から	-544
ar	-545
ものである	-546
参加	-547
at	-548
つか	-549
んど	-550
採用	-551
状態	-552
ニー	-553
わた	-554
政治	-555
▁と	-556
運転	-557
道路	-558
現在の	-559
を持つ	-560
60	-561
ラク	-562
▁S	-563
にして	-564
を得	-565
レス	-566
▁概要	-567
しば	-568
などを	-569
られて	-570
フランス	-571
っと	-572
ロッ	-573
。20	-574
これを	-575
年度	-576
スペ	-577
と呼ばれる	-578
カル	-579
ネル	-580
ゐる	-581
なった	-582
中央	-583
以上	-584
よく	-585
高い	-586
及び	-587
ウィ	-588
ぞれ	-589
▁199	-590
キー	-591
それぞれ	-592
らない	-593
担当	-594
それは	-595
スク	-596
なければ	-597
それを	-598
ネット	-599
フト	-600
JR	-601
交通	-602
場所	-603
ナル	-604
第一	-605
当初	-606
になって	-607
建設	-608
70	-609
を行う	-610
体の	-611
かつて	-612
マー	-613
よりも	-614
に対する	-615
メン	-616
付け	-617
アニ	-618
中国	-619
いい	-620
al	-621
最も	-622
販売	-623
当時の	-624
または	-625
大会	-626
シーズ	-627
情報	-628
運行	-629
といった	-630
目の	-631
ッチ	-632
自動車	-633
さい	-634
40	-635
)」	-636
デル	-637
発売	-638
いに	-639
ダイ	-640
まった	-641
ic	-642
人物	-643
ことも	-644
じて	-645
じゃ	-646
26	-647
28	-648
天皇	-649
技術	-650
いう	-651
際に	-652
ほと	-653
27	-654
中の	-655
ばかり	-656
終了	-657
事を	-658
クロ	-659
まれ	-660
構成	-661
することが	-662
、199	-663
。200	-664
合わせ	-665
に移	-666
軍の	-667
ことで	-668
しょう	-669
のもの	-670
などが	-671
航空	-672
ループ	-673
クト	-674
ブラ	-675
を通	-676
常に	-677
ジア	-678
自由	-679
やう	-680
委員	-681
を経	-682
とされる	-683
システ	-684
施設	-685
出した	-686
言葉	-687
はい	-688
出身	-689
リスト	-690
第二	-691
100	-692
システム	-693
アイ	-694
決定	-695
es	-696
江戸	-697
29	-698
優勝	-699
ほとんど	-700
以下の	-701
かけ	-702
攻撃	-703
所属	-704
出演	-705
運動	-706
時期	-707
であるが	-708
女性	-709
とともに	-710
制作	-711
をつ	-712
立ち	-713
▁その	-714
かな	-715
まだ	-716
デー	-717
エル	-718
▁C	-719
バイ	-720
地区	-721
じた	-722
▁は	-723
シン	-724
ビュー	-725
にと	-726
機能	-727
▁の	-728
場合は	-729
タン	-730
ひと	-731
たい	-732
生産	-733
するため	-734
▁日本	-735
、2	-736
に分	-737
198	-738
アニメ	-739
マル	-740
▁"	-741
野球	-742
km	-743
グループ	-744
基本	-745
入れ	-746
来る	-747
選挙	-748
に伴	-749
設定	-750
を務	-751
廃止	-752
最終	-753
に関する	-754
ウス	-755
マイ	-756
管理	-757
ていない	-758
度の	-759
イギリス	-760
月の	-761
と共に	-762
しまった	-763
はない	-764
させる	-765
リング	-766
させた	-767
ガン	-768
製造	-769
とし	-770
立て	-771
されており	-772
目的	-773
後は	-774
まる	-775
と云	-776
モン	-777
大きく	-778
物の	-779
31	-780
なん	-781
調査	-782
いの	-783
文字	-784
挙げ	-785
周辺	-786
理由	-787
述べ	-788
ダム	-789
あの	-790
できない	-791
彼の	-792
時代の	-793
においては	-794
自分の	-795
われた	-796
初めて	-797
いつ	-798
状況	-799
新聞	-800
導入	-801
組織	-802
ジン	-803
らは	-804
ヨー	-805
人を	-806
乗り	-807
am	-808
までは	-809
彼女	-810
就任	-811
わり	-812
実施	-813
人間	-814
地の	-815
来の	-816
を与	-817
ても	-818
等の	-819
シーズン	-820
を中心	-821
子供	-822
時の	-823
内容	-824
と同じ	-825
ものが	-826
▁M	-827
特徴	-828
設立	-829
っており	-830
トリ	-831
海道	-832
独立	-833
全て	-834
、1	-835
自然	-836
を結	-837
部に	-838
とう	-839
はじ	-840
用の	-841
と考え	-842
子は	-843
内に	-844
いている	-845
評価	-846
になっている	-847
ーション	-848
様に	-849
テン	-850
ござ	-851
を指	-852
ラス	-853
主に	-854
かれ	-855
発表	-856
ちゃ	-857
、3	-858
これらの	-859
であったが	-860
獲得	-861
へと	-862
の下	-863
あるいは	-864
重要	-865
ずれ	-866
まれた	-867
にした	-868
ハイ	-869
存在する	-870
といふ	-871
ロシア	-872
年間	-873
最大	-874
高等	-875
パン	-876
ハン	-877
▁なお	-878
に向	-879
ロン	-880
すべて	-881
▁A	-882
組み	-883
is	-884
を作	-885
最高	-886
it	-887
ものは	-888
っても	-889
企業	-890
らく	-891
アナ	-892
期の	-893
らしい	-894
しまう	-895
の中で	-896
方面	-897
行く	-898
参照	-899
議会	-900
京都	-901
ジュ	-902
ビー	-903
わず	-904
規模	-905
スー	-906
バル	-907
は一	-908
特別	-909
に至	-910
そんな	-911
異なる	-912
ールド	-913
la	-914
通常	-915
再び	-916
搭載	-917
に対し	-918
営業	-919
のある	-920
のために	-921
全国	-922
ソン	-923
表記	-924
を受けた	-925
ドル	-926
日には	-927
わけ	-928
帝国	-929
対象	-930
がない	-931
トン	-932
時点	-933
ローマ	-934
はその	-935
スコ	-936
カード	-937
ならない	-938
ヴェ	-939
さま	-940
の手	-941
ゆる	-942
たる	-943
タル	-944
テー	-945
わる	-946
を取	-947
デン	-948
ラジオ	-949
切り	-950
完全	-951
の発	-952
を示	-953
ジョン	-954
それが	-955
イタ	-956
入り	-957
国家	-958
ビス	-959
を除	-960
をか	-961
かれた	-962
のも	-963
れど	-964
デザ	-965
国民	-966
を使	-967
すぐ	-968
指定	-969
科学	-970
的には	-971
の主	-972
あら	-973
IC	-974
国内	-975
戦闘	-976
の一部	-977
小説	-978
さう	-979
卒業	-980
197	-981
45	-982
に見	-983
果た	-984
変化	-985
トラ	-986
高速	-987
のを	-988
せた	-989
向け	-990
認め	-991
le	-992
方法	-993
労働	-994
せる	-995
々の	-996
株式	-997
モデル	-998
相手	-999
アク	-1000
メント	-1001
くる	-1002
を取り	-1003
打ち	-1004
文学	-1005
ラクター	-1006
れない	-1007
としている	-1008
イト	-1009
▁P	-1010
をして	-1011
スは	-1012
せず	-1013
月には	-1014
学生	-1015
のうち	-1016
▁T	-1017
契約	-1018
していたが	-1019
支配	-1020
をした	-1021
を用	-1022
日から	-1023
ロッパ	-1024
部隊	-1025
運用	-1026
語の	-1027
の一つ	-1028
整備	-1029
センター	-1030
比較	-1031
いく	-1032
宇宙	-1033
ーター	-1034
べき	-1035
ヨーロッパ	-1036
います	-1037
出場	-1038
アルバ	-1039
もし	-1040
ウム	-1041
非常に	-1042
ケット	-1043
いだ	-1044
ごと	-1045
様々	-1046
に加	-1047
!」	-1048
名の	-1049
が生	-1050
しの	-1051
オリ	-1052
人口	-1053
ートル	-1054
を使用	-1055
が見	-1056
平均	-1057
漫画	-1058
議員	-1059
を含む	-1060
持ち	-1061
年は	-1062
成功	-1063
、18	-1064
せて	-1065
以上の	-1066
やす	-1067
されたが	-1068
勝利	-1069
強い	-1070
カン	-1071
連合	-1072
はこの	-1073
地に	-1074
ポーツ	-1075
番号	-1076
記念	-1077
ソフト	-1078
バン	-1079
共和	-1080
区間	-1081
表現	-1082
イタリア	-1083
形式	-1084
ほぼ	-1085
▁)	-1086
製作	-1087
のに	-1088
朝鮮	-1089
チャン	-1090
BS	-1091
われている	-1092
ッカー	-1093
ザー	-1094
を行った	-1095
数は	-1096
ッシュ	-1097
ガー	-1098
キャラクター	-1099
んです	-1100
かの	-1101
人に	-1102
新た	-1103
インター	-1104
なた	-1105
上に	-1106
しよう	-1107
行き	-1108
かい	-1109
太郎	-1110
が一	-1111
電気	-1112
?」	-1113
設計	-1114
由来	-1115
ギー	-1116
ion	-1117
は大	-1118
をと	-1119
のお	-1120
he	-1121
予定	-1122
出来	-1123
飛行	-1124
インド	-1125
re	-1126
もあり	-1127
などで	-1128
活躍	-1129
子が	-1130
大な	-1131
公開	-1132
に基	-1133
られていた	-1134
部屋	-1135
ジャー	-1136
装置	-1137
スポーツ	-1138
少し	-1139
方式	-1140
するが	-1141
が多い	-1142
環境	-1143
コミ	-1144
北海道	-1145
教会	-1146
側の	-1147
ワー	-1148
距離	-1149
実際	-1150
もので	-1151
大戦	-1152
事実	-1153
を開始	-1154
ファン	-1155
出し	-1156
受け	-1157
行われた	-1158
地下	-1159
高校	-1160
しても	-1161
、198	-1162
▁駅	-1163
批判	-1164
名称	-1165
と見	-1166
現代	-1167
▁大	-1168
事務	-1169
展開	-1170
銀行	-1171
完成	-1172
そのため	-1173
デザイン	-1174
普通	-1175
▁198	-1176
制度	-1177
反対	-1178
結婚	-1179
。『	-1180
の後	-1181
公式	-1182
だけで	-1183
シング	-1184
表示	-1185
委員会	-1186
のこと	-1187
連続	-1188
わった	-1189
名は	-1190
形成	-1191
コード	-1192
▁B	-1193
子を	-1194
にあた	-1195
大臣	-1196
かか	-1197
いずれ	-1198
んでいる	-1199
を果た	-1200
物を	-1201
様々な	-1202
▁しかし	-1203
種類	-1204
35	-1205
舞台	-1206
気が	-1207
▁18	-1208
政権	-1209
つつ	-1210
196	-1211
テル	-1212
を有	-1213
東京都	-1214
期間	-1215
ものを	-1216
に基づ	-1217
によると	-1218
II	-1219
ダン	-1220
程度	-1221
成立	-1222
ことに	-1223
統領	-1224
プラ	-1225
中で	-1226
ボー	-1227
のち	-1228
産業	-1229
シェ	-1230
主張	-1231
▁歴史	-1232
ロック	-1233
を目	-1234
提供	-1235
デビュー	-1236
ドラマ	-1237
裁判	-1238
イド	-1239
いが	-1240
アルバム	-1241
まれる	-1242
市の	-1243
会議	-1244
経営	-1245
込み	-1246
データ	-1247
サービス	-1248
空港	-1249
らう	-1250
をする	-1251
車の	-1252
そこで	-1253
ディア	-1254
海軍	-1255
以外の	-1256
警察	-1257
あって	-1258
性を	-1259
()	-1260
あなた	-1261
,000	-1262
一の	-1263
改正	-1264
だろう	-1265
の中に	-1266
st	-1267
方の	-1268
者を	-1269
工業	-1270
専門	-1271
アフ	-1272
事が	-1273
キング	-1274
らが	-1275
収録	-1276
上が	-1277
輸送	-1278
行った	-1279
ro	-1280
公園	-1281
一方で	-1282
たり	-1283
開業	-1284
90	-1285
定の	-1286
対応	-1287
クラブ	-1288
合併	-1289
に近	-1290
ビル	-1291
落ち	-1292
社の	-1293
国道	-1294
指導	-1295
長の	-1296
までに	-1297
▁m	-1298
地球	-1299
スカ	-1300
いや	-1301
けれど	-1302
体を	-1303
書き	-1304
形で	-1305
以前	-1306
(18	-1307
り返	-1308
英語	-1309
ハー	-1310
合衆	-1311
ブリ	-1312
の戦	-1313
いか	-1314
条件	-1315
運営	-1316
直接	-1317
あまり	-1318
行政	-1319
の間	-1320
プレ	-1321
どこ	-1322
系統	-1323
セル	-1324
とか	-1325
メー	-1326
共同	-1327
関連	-1328
に就任	-1329
に伴い	-1330
現在は	-1331
観光	-1332
広島	-1333
ユー	-1334
言語	-1335
協会	-1336
ビア	-1337
メートル	-1338
私の	-1339
過ぎ	-1340
説明	-1341
博士	-1342
を経て	-1343
高等学校	-1344
エンジン	-1345
小さ	-1346
例えば	-1347
の前	-1348
当初は	-1349
体が	-1350
新しい	-1351
いわ	-1352
だから	-1353
スタン	-1354
やが	-1355
引退	-1356
付近	-1357
であろう	-1358
、197	-1359
すれば	-1360
性の	-1361
九州	-1362
株式会社	-1363
ライン	-1364
ポン	-1365
▁F	-1366
もなく	-1367
化した	-1368
場の	-1369
試験	-1370
).	-1371
ティー	-1372
だったが	-1373
」、	-1374
効果	-1375
]]	-1376
連邦	-1377
メンバー	-1378
最初の	-1379
[[	-1380
を受けて	-1381
以降は	-1382
手を	-1383
フリー	-1384
リオ	-1385
、4	-1386
ジャン	-1387
としても	-1388
よい	-1389
過去	-1390
▁本	-1391
所の	-1392
はじめ	-1393
民主	-1394
拡大	-1395
が進	-1396
などに	-1397
なし	-1398
まず	-1399
少年	-1400
側に	-1401
地上	-1402
55	-1403
▁D	-1404
居る	-1405
発生	-1406
報告	-1407
を一	-1408
アジア	-1409
したり	-1410
精神	-1411
有名	-1412
これが	-1413
性が	-1414
それに	-1415
プリ	-1416
ちゃん	-1417
死去	-1418
になると	-1419
政策	-1420
色の	-1421
内閣	-1422
名を	-1423
演奏	-1424
大統領	-1425
系の	-1426
総合	-1427
乗車	-1428
48	-1429
されること	-1430
定義	-1431
種の	-1432
人気	-1433
時は	-1434
しながら	-1435
下の	-1436
教授	-1437
増加	-1438
ラム	-1439
出す	-1440
上で	-1441
建築	-1442
以来	-1443
型の	-1444
体は	-1445
かけて	-1446
学者	-1447
支援	-1448
古屋	-1449
あげ	-1450
ズム	-1451
▁が	-1452
AT	-1453
違い	-1454
えている	-1455
同時に	-1456
アメリカ合衆	-1457
ニング	-1458
ゐた	-1459
ノー	-1460
レース	-1461
じる	-1462
りと	-1463
クス	-1464
ちら	-1465
山の	-1466
el	-1467
ッツ	-1468
一部	-1469
戦で	-1470
通信	-1471
自治	-1472
最初	-1473
々に	-1474
氏の	-1475
ウル	-1476
続け	-1477
んでいた	-1478
パイ	-1479
ジー	-1480
それから	-1481
企画	-1482
タイトル	-1483
早く	-1484
を開	-1485
ol	-1486
ゅう	-1487
ボール	-1488
ディー	-1489
保護	-1490
確認	-1491
によれば	-1492
全く	-1493
を発表	-1494
いていた	-1495
力の	-1496
かう	-1497
高く	-1498
様の	-1499
したため	-1500
つけ	-1501
行動	-1502
電話	-1503
▁L	-1504
思い	-1505
33	-1506
にあった	-1507
世の	-1508
")	-1509
。(	-1510
規定	-1511
電車	-1512
次の	-1513
もあった	-1514
、196	-1515
世界大戦	-1516
物語	-1517
作戦	-1518
配置	-1519
に変更	-1520
にかけて	-1521
バンド	-1522
分の	-1523
ac	-1524
ることを	-1525
芸術	-1526
スを	-1527
住民	-1528
月から	-1529
ユニ	-1530
スが	-1531
長い	-1532
作曲	-1533
せん	-1534
ウォ	-1535
名古屋	-1536
et	-1537
指揮	-1538
呼ば	-1539
製品	-1540
時代に	-1541
目を	-1542
始め	-1543
次世界大戦	-1544
写真	-1545
トロ	-1546
にとって	-1547
ヤー	-1548
を求	-1549
プレイ	-1550
時には	-1551
▁R	-1552
を表	-1553
32	-1554
宗教	-1555
幕府	-1556
たちは	-1557
力が	-1558
装備	-1559
を獲得	-1560
近く	-1561
しろ	-1562
系列	-1563
をもって	-1564
原因	-1565
方が	-1566
事は	-1567
ベース	-1568
▁第	-1569
きの	-1570
36	-1571
掲載	-1572
方向	-1573
▁一	-1574
本線	-1575
流れ	-1576
for	-1577
温泉	-1578
度は	-1579
先生	-1580
紹介	-1581
行為	-1582
横浜	-1583
いろ	-1584
思想	-1585
条約	-1586
本の	-1587
支持	-1588
りを	-1589
ることは	-1590
シャル	-1591
ズの	-1592
後半	-1593
広く	-1594
に従	-1595
▁G	-1596
改造	-1597
登場する	-1598
さえ	-1599
地を	-1600
▁2	-1601
撮影	-1602
女の	-1603
▁1	-1604
.5	-1605
。199	-1606
の実	-1607
者に	-1608
ディング	-1609
だと	-1610
正式	-1611
できた	-1612
が設置	-1613
理論	-1614
民族	-1615
こんな	-1616
二十	-1617
くら	-1618
44	-1619
ストラ	-1620
そのまま	-1621
キャン	-1622
登録	-1623
やがて	-1624
記述	-1625
||	-1626
標準	-1627
島の	-1628
無い	-1629
分類	-1630
NH	-1631
革命	-1632
38	-1633
フレ	-1634
を中心に	-1635
料理	-1636
停車	-1637
設け	-1638
比べ	-1639
動物	-1640
lt	-1641
出版	-1642
細胞	-1643
競馬	-1644
スーパー	-1645
続き	-1646
最後の	-1647
業務	-1648
特急	-1649
当駅	-1650
人で	-1651
誕生	-1652
機の	-1653
大正	-1654
ピー	-1655
少なく	-1656
するなど	-1657
▁お	-1658
工場	-1659
単位	-1660
日は	-1661
候補	-1662
内で	-1663
37	-1664
ほう	-1665
、5	-1666
ミー	-1667
ねえ	-1668
初期	-1669
と呼ぶ	-1670
▁197	-1671
しゃ	-1672
代の	-1673
旅客	-1674
店舗	-1675
外国	-1676
が多く	-1677
統一	-1678
いました	-1679
(15	-1680
47	-1681
NA	-1682
もない	-1683
められた	-1684
しては	-1685
しは	-1686
フル	-1687
復帰	-1688
学部	-1689
自身の	-1690
軍は	-1691
移動	-1692
かつ	-1693
の影響	-1694
川の	-1695
レク	-1696
イング	-1697
することを	-1698
が行われた	-1699
を行い	-1700
来て	-1701
りで	-1702
ミュー	-1703
するために	-1704
▁その後	-1705
万円	-1706
ピュー	-1707
制御	-1708
ライブ	-1709
少ない	-1710
元年	-1711
と称	-1712
雑誌	-1713
ou	-1714
法律	-1715
述の	-1716
ッグ	-1717
が必要	-1718
くれ	-1719
om	-1720
ギリ	-1721
多数	-1722
相当	-1723
こそ	-1724
かる	-1725
えない	-1726
軍事	-1727
食べ	-1728
主要	-1729
カップ	-1730
感じ	-1731
と述べ	-1732
さんは	-1733
チュ	-1734
〳〵	-1735
』『	-1736
美術	-1737
が発生	-1738
とされている	-1739
体制	-1740
明ら	-1741
まい	-1742
たら	-1743
何か	-1744
別の	-1745
していない	-1746
強く	-1747
くと	-1748
点を	-1749
経験	-1750
)・	-1751
成績	-1752
決勝	-1753
競技	-1754
オープ	-1755
されていない	-1756
年まで	-1757
長は	-1758
呼び	-1759
のない	-1760
」、「	-1761
家族	-1762
形態	-1763
一つ	-1764
重要な	-1765
を利用	-1766
タイプ	-1767
道の	-1768
接続	-1769
しました	-1770
皇帝	-1771
NHK	-1772
えられた	-1773
団体	-1774
34	-1775
カリ	-1776
艦隊	-1777
発展	-1778
独自	-1779
部は	-1780
生物	-1781
なければならない	-1782
千葉	-1783
くり	-1784
の地	-1785
2000	-1786
をお	-1787
を引き	-1788
みな	-1789
生き	-1790
イベ	-1791
ダイヤ	-1792
かく	-1793
事故	-1794
福岡	-1795
下に	-1796
は不	-1797
amp	-1798
追加	-1799
ったが	-1800
分野	-1801
ールの	-1802
安定	-1803
傾向	-1804
メーカー	-1805
サッカー	-1806
......」	-1807
出して	-1808
▁I	-1809
▁ア	-1810
しき	-1811
議院	-1812
法の	-1813
めている	-1814
商品	-1815
共和国	-1816
知ら	-1817
プト	-1818
に属	-1819
することで	-1820
を持ち	-1821
58	-1822
処理	-1823
将軍	-1824
クレ	-1825
ワン	-1826
コンピュー	-1827
所に	-1828
中継	-1829
39	-1830
▁E	-1831
面に	-1832
安全	-1833
ch	-1834
リリー	-1835
しくは	-1836
すな	-1837
mu	-1838
の上に	-1839
関東	-1840
俳優	-1841
ナイ	-1842
太平	-1843
スペイン	-1844
わらず	-1845
キリスト	-1846
でもある	-1847
となって	-1848
に当	-1849
自ら	-1850
ざる	-1851
を担当	-1852
られない	-1853
に参加	-1854
の中心	-1855
46	-1856
つまり	-1857
▁W	-1858
手に	-1859
被害	-1860
なかったが	-1861
たと	-1862
ナン	-1863
劇場	-1864
朝日	-1865
東日本	-1866
と呼ばれ	-1867
を採用	-1868
指摘	-1869
gt	-1870
マーク	-1871
グラム	-1872
主な	-1873
に戻	-1874
いを	-1875
ユダ	-1876
実現	-1877
が大	-1878
読み	-1879
既に	-1880
専用	-1881
ピア	-1882
ソ連	-1883
目に	-1884
500	-1885
伝統	-1886
▁t	-1887
42	-1888
発見	-1889
維持	-1890
の意	-1891
基準	-1892
ベン	-1893
ケー	-1894
に改	-1895
ようになり	-1896
しも	-1897
線が	-1898
陸軍	-1899
バラ	-1900
連載	-1901
の長	-1902
なって	-1903
を参照	-1904
したもの	-1905
に進	-1906
ワーク	-1907
つき	-1908
サイト	-1909
ではないか	-1910
したこと	-1911
始めた	-1912
を生	-1913
白い	-1914
学の	-1915
ギュ	-1916
人員	-1917
司令	-1918
連絡	-1919
制限	-1920
間で	-1921
パス	-1922
ありません	-1923
チャー	-1924
43	-1925
動き	-1926
アナウン	-1927
僕は	-1928
神戸	-1929
するという	-1930
なかつた	-1931
十分	-1932
県の	-1933
げた	-1934
共通	-1935
と思う	-1936
作の	-1937
初代	-1938
知られる	-1939
急行	-1940
統合	-1941
アラ	-1942
飛び	-1943
作家	-1944
必ず	-1945
トラン	-1946
数が	-1947
一度	-1948
映像	-1949
交換	-1950
障害	-1951
可能な	-1952
かし	-1953
。18	-1954
ゴル	-1955
反応	-1956
電子	-1957
工事	-1958
更に	-1959
定期	-1960
古代	-1961
要素	-1962
を占	-1963
などは	-1964
派の	-1965
めていた	-1966
ファー	-1967
il	-1968
に至る	-1969
▁生	-1970
▁c	-1971
形の	-1972
▁3	-1973
市場	-1974
記の	-1975
であると	-1976
▁H	-1977
わち	-1978
コロ	-1979
太陽	-1980
クリ	-1981
ピン	-1982
チェン	-1983
いった	-1984
の子	-1985
、6	-1986
後も	-1987
ポート	-1988
町の	-1989
替え	-1990
ユダヤ	-1991
はず	-1992
オリン	-1993
を継	-1994
ルム	-1995
手の	-1996
法人	-1997
(20	-1998
普及	-1999
アフリカ	-2000
の場合	-2001
54	-2002
エネル	-2003
de	-2004
メージ	-2005
AN	-2006
実験	-2007
からも	-2008
を下	-2009
メディア	-2010
メイン	-2011
近代	-2012
チン	-2013
東北	-2014
要求	-2015
ヨーク	-2016
市民	-2017
意識	-2018
対立	-2019
次第	-2020
アメリカ合衆国	-2021
っぱ	-2022
破壊	-2023
ゴール	-2024
OS	-2025
41	-2026
セント	-2027
ルス	-2028
▁N	-2029
かも	-2030
アップ	-2031
病院	-2032
すなわち	-2033
性能	-2034
置き	-2035
49	-2036
の高	-2037
と一	-2038
コース	-2039
しが	-2040
個人	-2041
(19	-2042
命令	-2043
判断	-2044
の小	-2045
禁止	-2046
改革	-2047
このため	-2048
を目指	-2049
なくなった	-2050
込んだ	-2051
代わ	-2052
ございます	-2053
フォー	-2054
出て	-2055
速度	-2056
エネルギー	-2057
女子	-2058
式の	-2059
可能性	-2060
立つ	-2061
トゥ	-2062
イベント	-2063
困難	-2064
韓国	-2065
これに	-2066
59	-2067
用いられる	-2068
となっていた	-2069
(16	-2070
とその	-2071
を務めた	-2072
されていたが	-2073
いわゆる	-2074
56	-2075
▁小	-2076
トー	-2077
ing	-2078
部門	-2079
▁196	-2080
mm	-2081
海外	-2082
しなかった	-2083
々と	-2084
るが	-2085
の家	-2086
ッジ	-2087
こうした	-2088
においても	-2089
57	-2090
ひとつ	-2091
首相	-2092
51	-2093
範囲	-2094
ライト	-2095
パリ	-2096
富士	-2097
若い	-2098
を挙げ	-2099
ウンド	-2100
を起こ	-2101
量の	-2102
線を	-2103
減少	-2104
)3	-2105
注意	-2106
紀元	-2107
▁中	-2108
編集	-2109
神社	-2110
建て	-2111
はり	-2112
たび	-2113
たちの	-2114
タイム	-2115
アウ	-2116
駅舎	-2117
他に	-2118
みに	-2119
役割	-2120
阪神	-2121
を記録	-2122
ワールド	-2123
ピック	-2124
一部の	-2125
of	-2126
記載	-2127
軌道	-2128
チョ	-2129
ては	-2130
すべき	-2131
やり	-2132
報道	-2133
かれている	-2134
ER	-2135
機構	-2136
ホール	-2137
どんな	-2138
あと	-2139
いずれも	-2140
であつた	-2141
as	-2142
機械	-2143
、)	-2144
込む	-2145
しさ	-2146
復活	-2147
詳細	-2148
仕事	-2149
ファイ	-2150
を加	-2151
いま	-2152
の本	-2153
代目	-2154
歳の	-2155
成長	-2156
、10	-2157
ペン	-2158
貨物	-2159
区別	-2160
に一	-2161
を超	-2162
、7	-2163
作業	-2164
太平洋	-2165
時点で	-2166
まと	-2167
様な	-2168
位の	-2169
元の	-2170
首都	-2171
を受賞	-2172
しばしば	-2173
化学	-2174
オス	-2175
かつては	-2176
コンピュータ	-2177
改札	-2178
▁三	-2179
兄弟	-2180
が存在	-2181
をはじめ	-2182
することは	-2183
生の	-2184
県道	-2185
IS	-2186
に位置	-2187
を指す	-2188
なども	-2189
移籍	-2190
人々	-2191
52	-2192
が開	-2193
合わせて	-2194
責任	-2195
ほん	-2196
ニュース	-2197
mula	-2198
大きい	-2199
競走	-2200
に応	-2201
共産	-2202
BC	-2203
徳川	-2204
すぎ	-2205
全体	-2206
ずに	-2207
▁新	-2208
ミュージ	-2209
53	-2210
今日	-2211
概念	-2212
ることができる	-2213
掛け	-2214
を描	-2215
グレ	-2216
なっている	-2217
段階	-2218
us	-2219
物質	-2220
選手権	-2221
formula	-2222
人と	-2223
AS	-2224
続く	-2225
プレー	-2226
ラル	-2227
以後	-2228
選択	-2229
▁地	-2230
。......	-2231
第二次世界大戦	-2232
やうに	-2233
トップ	-2234
放送された	-2235
を残	-2236
このような	-2237
セット	-2238
力は	-2239
名が	-2240
好き	-2241
を送	-2242
わない	-2243
逃げ	-2244
ようになる	-2245
年頃	-2246
お前	-2247
小さな	-2248
っていない	-2249
対策	-2250
デュー	-2251
方に	-2252
モー	-2253
対戦	-2254
達成	-2255
を迎	-2256
商業	-2257
第三	-2258
スキー	-2259
を結ぶ	-2260
ヴォ	-2261
リリース	-2262
発行	-2263
台湾	-2264
派遣	-2265
スタジオ	-2266
おらず	-2267
デジ	-2268
ow	-2269
西洋	-2270
フロ	-2271
CD	-2272
原子	-2273
比較的	-2274
ウェー	-2275
ならず	-2276
住宅	-2277
しているが	-2278
づけ	-2279
イント	-2280
するもの	-2281
に転	-2282
特殊	-2283
解説	-2284
一人	-2285
に生	-2286
所有	-2287
があるが	-2288
広が	-2289
ごろ	-2290
手が	-2291
ブランド	-2292
ガンダム	-2293
日本では	-2294
面の	-2295
計算	-2296
キュ	-2297
機器	-2298
ストー	-2299
これら	-2300
ウェア	-2301
憲法	-2302
王国	-2303
駅である	-2304
危険	-2305
あれ	-2306
つく	-2307
フラ	-2308
金を	-2309
マス	-2310
ギャ	-2311
を知	-2312
ドア	-2313
立場	-2314
は以下の	-2315
。)	-2316
関西	-2317
を示す	-2318
ティング	-2319
バック	-2320
ところが	-2321
地で	-2322
男性	-2323
自己	-2324
エア	-2325
宣言	-2326
言う	-2327
▁を	-2328
1,	-2329
失敗	-2330
家は	-2331
でない	-2332
ガル	-2333
の国	-2334
やうな	-2335
ent	-2336
やって	-2337
交差	-2338
が始	-2339
藩主	-2340
ブレー	-2341
ならば	-2342
人民	-2343
幹線	-2344
購入	-2345
名前	-2346
複数の	-2347
を図	-2348
ガス	-2349
追い	-2350
押し	-2351
人間の	-2352
コーナー	-2353
......。	-2354
朝の	-2355
ボン	-2356
に近い	-2357
沖縄	-2358
を失	-2359
ゴン	-2360
設備	-2361
してきた	-2362
ation	-2363
観測	-2364
アメリカの	-2365
イメージ	-2366
植物	-2367
きっ	-2368
メラ	-2369
アド	-2370
父の	-2371
カナ	-2372
背景	-2373
勝ち	-2374
日本語	-2375
限り	-2376
協力	-2377
党の	-2378
確保	-2379
AR	-2380
つと	-2381
つてゐる	-2382
たが	-2383
きて	-2384
に終	-2385
同盟	-2386
の出	-2387
意見	-2388
ていたが	-2389
テーマ	-2390
結局	-2391
大陸	-2392
金属	-2393
人公	-2394
、8	-2395
に対応	-2396
衛門	-2397
会の	-2398
ミニ	-2399
つも	-2400
作用	-2401
投げ	-2402
戦の	-2403
フジ	-2404
毎日	-2405
キシ	-2406
を有する	-2407
防衛	-2408
地は	-2409
。198	-2410
ロンド	-2411
集団	-2412
を決	-2413
さんの	-2414
)4	-2415
所在	-2416
ほどの	-2417
させて	-2418
付き	-2419
現役	-2420
りて	-2421
ra	-2422
が主	-2423
新たな	-2424
以降の	-2425
ヒット	-2426
ざま	-2427
丁目	-2428
のための	-2429
低い	-2430
カラ	-2431
原則	-2432
ならぬ	-2433
顔を	-2434
っとも	-2435
両編成	-2436
多かった	-2437
レーション	-2438
行う	-2439
史上	-2440
球団	-2441
を解	-2442
士の	-2443
すで	-2444
異なり	-2445
面積	-2446
CM	-2447
出された	-2448
.0	-2449
を見て	-2450
なもの	-2451
みの	-2452
クライ	-2453
ニューヨーク	-2454
かれる	-2455
大学の	-2456
ダル	-2457
FA	-2458
称は	-2459
次郎	-2460
ちな	-2461
使われ	-2462
っき	-2463
いくつか	-2464
しばらく	-2465
別に	-2466
出身の	-2467
300	-2468
しに	-2469
パート	-2470
ed	-2471
の外	-2472
エリア	-2473
君は	-2474
人である	-2475
を聞	-2476
アナウンサー	-2477
停止	-2478
に帰	-2479
にあたる	-2480
を行っている	-2481
国鉄	-2482
信号	-2483
("	-2484
も含	-2485
の生	-2486
ども	-2487
権を	-2488
デオ	-2489
もしくは	-2490
シャー	-2491
死亡	-2492
強化	-2493
ルート	-2494
当時は	-2495
キロ	-2496
コーチ	-2497
レギュ	-2498
中学校	-2499
限定	-2500
繰り返	-2501
現象	-2502
子に	-2503
リスの	-2504
会長	-2505
りが	-2506
られており	-2507
あるが	-2508
者として	-2509
と言う	-2510
国立	-2511
イズ	-2512
最大の	-2513
ミン	-2514
であります	-2515
を受ける	-2516
▁O	-2517
行する	-2518
鎌倉	-2519
オフ	-2520
新潟	-2521
たちが	-2522
ネス	-2523
可能である	-2524
理解	-2525
じゃない	-2526
キリスト教	-2527
シングル	-2528
性質	-2529
したのは	-2530
文書	-2531
周囲	-2532
延長	-2533
交流	-2534
組合	-2535
考へ	-2536
のほか	-2537
かん	-2538
間は	-2539
っていたが	-2540
オル	-2541
に変	-2542
州の	-2543
貴族	-2544
らい	-2545
に任	-2546
仙台	-2547
えられ	-2548
年ぶ	-2549
とも呼ば	-2550
交渉	-2551
にする	-2552
ドリ	-2553
海岸	-2554
市街	-2555
まえ	-2556
ミュ	-2557
紀元前	-2558
機に	-2559
と語	-2560
著作	-2561
までも	-2562
かない	-2563
きました	-2564
を進	-2565
ことがある	-2566
▁上	-2567
ケン	-2568
たく	-2569
キン	-2570
仕様	-2571
やはり	-2572
検討	-2573
▁※	-2574
実に	-2575
FC	-2576
家庭	-2577
部を	-2578
オリジ	-2579
資格	-2580
同じく	-2581
これにより	-2582
江戸時代	-2583
を抱	-2584
に選	-2585
。――	-2586
ジェクト	-2587
ねて	-2588
駅の	-2589
資料	-2590
ごとに	-2591
際には	-2592
単に	-2593
込んで	-2594
リーン	-2595
車は	-2596
気の	-2597
きに	-2598
すが	-2599
64	-2600
期に	-2601
の三	-2602
奈良	-2603
リエ	-2604
線は	-2605
の第	-2606
やすい	-2607
全ての	-2608
が残	-2609
ブレ	-2610
小学校	-2611
ぢや	-2612
ネー	-2613
デジタル	-2614
山口	-2615
ヒト	-2616
創設	-2617
ための	-2618
声が	-2619
トレ	-2620
相互	-2621
cm	-2622
しみ	-2623
ig	-2624
od	-2625
深い	-2626
がな	-2627
どうか	-2628
物理	-2629
保存	-2630
がい	-2631
▁4	-2632
用語	-2633
▁km	-2634
レコード	-2635
制定	-2636
おお	-2637
ケース	-2638
トリック	-2639
男の	-2640
を意味	-2641
知られている	-2642
っち	-2643
に大	-2644
を通じて	-2645
は無	-2646
ボル	-2647
古い	-2648
施行	-2649
機動	-2650
オリンピック	-2651
パラ	-2652
ON	-2653
プロデュー	-2654
すと	-2655
すぐに	-2656
発電	-2657
能力	-2658
ロード	-2659
クション	-2660
オープン	-2661
-1	-2662
所は	-2663
入口	-2664
規制	-2665
新たに	-2666
公演	-2667
曜日	-2668
エレ	-2669
停留	-2670
視聴	-2671
医療	-2672
彼女は	-2673
があ	-2674
毎年	-2675
価格	-2676
半島	-2677
ねば	-2678
固定	-2679
向上	-2680
者も	-2681
塁打	-2682
化された	-2683
けん	-2684
地震	-2685
拠点	-2686
消費	-2687
人も	-2688
否定	-2689
クル	-2690
認識	-2691
が入	-2692
を訪	-2693
行われる	-2694
が不	-2695
サル	-2696
レギュラー	-2697
分離	-2698
IN	-2699
ヘン	-2700
ニック	-2701
らし	-2702
グリ	-2703
すでに	-2704
扱い	-2705
についても	-2706
世は	-2707
したという	-2708
旅行	-2709
場で	-2710
まって	-2711
▁近	-2712
悪い	-2713
けない	-2714
ワイ	-2715
することができる	-2716
を重	-2717
提案	-2718
領域	-2719
ブルク	-2720
アカ	-2721
楽曲	-2722
見た	-2723
▁J	-2724
社長	-2725
長く	-2726
改良	-2727
思議	-2728
王の	-2729
広い	-2730
供給	-2731
ットの	-2732
信仰	-2733
ランダ	-2734
セス	-2735
▁of	-2736
カラー	-2737
and	-2738
ニュ	-2739
日まで	-2740
▁V	-2741
員が	-2742
下り	-2743
身を	-2744
を開始した	-2745
治療	-2746
ることで	-2747
振り	-2748
形状	-2749
川県	-2750
(1	-2751
市内	-2752
しん	-2753
申し	-2754
が起	-2755
刊行	-2756
スピ	-2757
発売された	-2758
心を	-2759
ポイント	-2760
解釈	-2761
参戦	-2762
操作	-2763
南部	-2764
上げた	-2765
古く	-2766
きっかけ	-2767
適用	-2768
使われる	-2769
が存在する	-2770
金の	-2771
それで	-2772
番組の	-2773
ter	-2774
オペ	-2775
場合もある	-2776
ちょう	-2777
平和	-2778
にあ	-2779
実際に	-2780
だけでなく	-2781
回転	-2782
案内	-2783
ちょ	-2784
チェンジ	-2785
ノン	-2786
事情	-2787
オブ	-2788
をしている	-2789
プログラム	-2790
価値	-2791
とされ	-2792
従来の	-2793
ああ	-2794
えき	-2795
置く	-2796
ここで	-2797
式ホーム	-2798
ナム	-2799
声を	-2800
数を	-2801
かなり	-2802
クー	-2803
一郎	-2804
局の	-2805
階級	-2806
分け	-2807
貢献	-2808
ot	-2809
連盟	-2810
かって	-2811
2005	-2812
空間	-2813
ということ	-2814
撤退	-2815
神奈	-2816
とに	-2817
原作	-2818
少女	-2819
期待	-2820
農業	-2821
多数の	-2822
ずつ	-2823
南北	-2824
できなかった	-2825
おか	-2826
現在では	-2827
取引	-2828
規格	-2829
統治	-2830
。2	-2831
左右	-2832
売り	-2833
権利	-2834
長野	-2835
の新	-2836
と同様に	-2837
でしょう	-2838
、9	-2839
められ	-2840
とされた	-2841
スタッ	-2842
結成	-2843
完全に	-2844
けれども	-2845
なんだ	-2846
やや	-2847
作品の	-2848
換え	-2849
生まれ	-2850
68	-2851
さが	-2852
配信	-2853
によっては	-2854
の不	-2855
戦後	-2856
AM	-2857
積極	-2858
直通	-2859
道を	-2860
機会	-2861
物は	-2862
ツアー	-2863
イギリスの	-2864
um	-2865
」。	-2866
伊勢	-2867
美しい	-2868
さんが	-2869
率は	-2870
年より	-2871
ゲン	-2872
空気	-2873
されない	-2874
りました	-2875
投票	-2876
ストーリー	-2877
AC	-2878
と考えられている	-2879
を主	-2880
リティ	-2881
木の	-2882
!』	-2883
続けた	-2884
仏教	-2885
伝説	-2886
に立	-2887
ホテル	-2888
ビン	-2889
準備	-2890
度が	-2891
が起こ	-2892
に乗	-2893
基礎	-2894
性格	-2895
われて	-2896
コール	-2897
ドゥ	-2898
遺伝	-2899
村の	-2900
更新	-2901
ゆく	-2902
大型	-2903
un	-2904
員の	-2905
検査	-2906
必要がある	-2907
位を	-2908
しかも	-2909
バッ	-2910
2006	-2911
容易	-2912
歳で	-2913
うちに	-2914
インタ	-2915
ッション	-2916
らしく	-2917
の内	-2918
に出演	-2919
三郎	-2920
などと	-2921
事に	-2922
者である	-2923
崩壊	-2924
ベスト	-2925
札幌	-2926
億円	-2927
ur	-2928
▁天	-2929
後述	-2930
に入り	-2931
推進	-2932
解散	-2933
父親	-2934
チー	-2935
決して	-2936
本社	-2937
1000	-2938
試み	-2939
オール	-2940
フォン	-2941
次第に	-2942
の神	-2943
保険	-2944
っかり	-2945
電鉄	-2946
議論	-2947
▁2005	-2948
欧州	-2949
米国	-2950
ずる	-2951
製の	-2952
かえ	-2953
75	-2954
初期の	-2955
げる	-2956
りは	-2957
機が	-2958
に関しては	-2959
田は	-2960
その他	-2961
も多い	-2962
さまざま	-2963
捨て	-2964
田の	-2965
屋の	-2966
ムー	-2967
▁二	-2968
日より	-2969
規模な	-2970
、"	-2971
とおり	-2972
機を	-2973
最後に	-2974
日付	-2975
一般に	-2976
に由来	-2977
確立	-2978
PC	-2979
(「	-2980
星の	-2981
スティ	-2982
ケル	-2983
を実施	-2984
ST	-2985
さを	-2986
教師	-2987
賞を受賞	-2988
軍が	-2989
▁6	-2990
車体	-2991
酸化	-2992
ビデオ	-2993
低下	-2994
▁東	-2995
グル	-2996
を除く	-2997
まれている	-2998
楽器	-2999
ッセ	-3000
再開	-3001
こともある	-3002
隣接	-3003
としていた	-3004
長官	-3005
金融	-3006
深く	-3007
リート	-3008
経歴	-3009
▁2010	-3010
となっており	-3011
のア	-3012
などがある	-3013
西武	-3014
合成	-3015
オランダ	-3016
抵抗	-3017
言い	-3018
当て	-3019
えられる	-3020
%、	-3021
一つの	-3022
スラ	-3023
カメラ	-3024
いと	-3025
場合には	-3026
ったり	-3027
たない	-3028
希望	-3029
音が	-3030
唯一の	-3031
そこに	-3032
通称	-3033
家に	-3034
スタッフ	-3035
こともあり	-3036
途中	-3037
頃から	-3038
水の	-3039
ストリア	-3040
側は	-3041
78	-3042
極めて	-3043
エー	-3044
公共	-3045
TBS	-3046
やく	-3047
回の	-3048
トラック	-3049
本格	-3050
土地	-3051
の死	-3052
に着	-3053
義務	-3054
ロボ	-3055
すべての	-3056
受賞	-3057
になっていた	-3058
女優	-3059
車が	-3060
来歴	-3061
方針	-3062
に達	-3063
単独	-3064
臨時	-3065
:00	-3066
ct	-3067
差し	-3068
であるため	-3069
ントン	-3070
結合	-3071
んと	-3072
iv	-3073
イー	-3074
99	-3075
兵器	-3076
探偵	-3077
。1	-3078
本塁打	-3079
ワード	-3080
うえ	-3081
家が	-3082
逆に	-3083
経緯	-3084
エピ	-3085
ります	-3086
地帯	-3087
カイ	-3088
タウン	-3089
それでも	-3090
に所属	-3091
令和	-3092
兵衛	-3093
声優	-3094
に取り	-3095
62	-3096
MS	-3097
証明	-3098
藤原	-3099
を搭載	-3100
次いで	-3101
中止	-3102
気候	-3103
中華	-3104
開催された	-3105
にあり	-3106
かれて	-3107
▁2006	-3108
統計	-3109
到着	-3110
プル	-3111
犯罪	-3112
静岡	-3113
岡山	-3114
2007	-3115
エンジ	-3116
プロ野球	-3117
やる	-3118
ポリ	-3119
合い	-3120
継続	-3121
許可	-3122
でした	-3123
みんな	-3124
消滅	-3125
ッと	-3126
和歌	-3127
まあ	-3128
西日本	-3129
▁前	-3130
物が	-3131
周年	-3132
ズは	-3133
心の	-3134
にわた	-3135
ターン	-3136
健康	-3137
見られる	-3138
ステージ	-3139
ッカ	-3140
改善	-3141
に於	-3142
良い	-3143
隊の	-3144
無く	-3145
されているが	-3146
イスラ	-3147
もと	-3148
を果たした	-3149
ログ	-3150
OR	-3151
を放	-3152
長崎	-3153
ロール	-3154
を見た	-3155
小さい	-3156
クター	-3157
屋敷	-3158
からである	-3159
ことが多い	-3160
▁s	-3161
テスト	-3162
は日本	-3163
東西	-3164
十二	-3165
母親	-3166
ゼン	-3167
兵庫	-3168
初め	-3169
活動を	-3170
規則	-3171
使用される	-3172
」)	-3173
くだ	-3174
を着	-3175
駅で	-3176
衆議院	-3177
のであった	-3178
との関係	-3179
手紙	-3180
諸国	-3181
氏は	-3182
不思議	-3183
メイ	-3184
(『	-3185
貿易	-3186
その他の	-3187
吹き	-3188
フジテレビ	-3189
65	-3190
行の	-3191
民間	-3192
侵攻	-3193
族の	-3194
ヤマ	-3195
にもかか	-3196
区分	-3197
燃料	-3198
知識	-3199
回復	-3200
神経	-3201
▁2000	-3202
私が	-3203
と云ふ	-3204
プロレス	-3205
ページ	-3206
ミング	-3207
を保	-3208
プロジェクト	-3209
▁2007	-3210
(17	-3211
フランスの	-3212
に基づく	-3213
▁K	-3214
の研究	-3215
コミュ	-3216
イングランド	-3217
年齢	-3218
えていた	-3219
ロス	-3220
レンジ	-3221
クラス	-3222
と同時に	-3223
スタート	-3224
法を	-3225
集中	-3226
インターネット	-3227
具体	-3228
所が	-3229
機は	-3230
を追	-3231
外の	-3232
感染	-3233
部が	-3234
建造	-3235
調整	-3236
フィリ	-3237
複数	-3238
th	-3239
収入	-3240
』、『	-3241
それぞれの	-3242
ソード	-3243
展示	-3244
トンネル	-3245
自衛	-3246
ノル	-3247
緒に	-3248
にもかかわらず	-3249
2008	-3250
まさ	-3251
チュー	-3252
植民	-3253
生命	-3254
の日	-3255
屋根	-3256
、(	-3257
の名称	-3258
独自の	-3259
青年	-3260
東海	-3261
と名	-3262
博物	-3263
執筆	-3264
リズム	-3265
2004	-3266
多くは	-3267
ポール	-3268
発言	-3269
ゲル	-3270
化し	-3271
わが	-3272
をし	-3273
シル	-3274
ろしい	-3275
ロンドン	-3276
らぬ	-3277
77	-3278
グラン	-3279
されてい	-3280
ってきた	-3281
之助	-3282
アンド	-3283
します	-3284
かす	-3285
ホー	-3286
プライ	-3287
息子	-3288
田中	-3289
▁d	-3290
従来	-3291
オリジナル	-3292
集合	-3293
投手	-3294
軍を	-3295
ラの	-3296
ショー	-3297
量は	-3298
ゲスト	-3299
im	-3300
図書	-3301
チャンピ	-3302
演出	-3303
郵便	-3304
と云う	-3305
EC	-3306
一時	-3307
民主党	-3308
ついた	-3309
os	-3310
程度の	-3311
ジョージ	-3312
その後も	-3313
を設置	-3314
風の	-3315
以前の	-3316
に比べ	-3317
コント	-3318
イエ	-3319
らなかった	-3320
かが	-3321
時代には	-3322
ネットワーク	-3323
ヘル	-3324
シート	-3325
の山	-3326
訓練	-3327
シーン	-3328
先に	-3329
哲学	-3330
リック	-3331
VD	-3332
ブレーキ	-3333
ベルト	-3334
いふ	-3335
まれて	-3336
の二	-3337
▁来歴	-3338
分析	-3339
諸島	-3340
するための	-3341
スケ	-3342
新幹線	-3343
ときに	-3344
番号は	-3345
ることもある	-3346
事態	-3347
ことができる	-3348
98	-3349
おれ	-3350
戦では	-3351
資本	-3352
と並	-3353
▁10	-3354
投入	-3355
継承	-3356
登場した	-3357
アの	-3358
ゼル	-3359
位に	-3360
書いた	-3361
、12	-3362
輸入	-3363
コル	-3364
を用いて	-3365
ジアム	-3366
快速	-3367
▁マ	-3368
上り	-3369
主演	-3370
認定	-3371
していく	-3372
処分	-3373
構想	-3374
ドイツの	-3375
テク	-3376
巻き	-3377
em	-3378
ッサ	-3379
さない	-3380
同様	-3381
有効	-3382
栽培	-3383
パル	-3384
頭に	-3385
どの	-3386
シナ	-3387
続いて	-3388
愛知	-3389
くれた	-3390
と述べている	-3391
秘密	-3392
児島	-3393
の中には	-3394
ハード	-3395
もち	-3396
コミュニ	-3397
バート	-3398
場に	-3399
一番	-3400
ソロ	-3401
特定	-3402
同様に	-3403
がなく	-3404
行した	-3405
を手	-3406
拡張	-3407
の名前	-3408
id	-3409
万人	-3410
へ向	-3411
本作	-3412
勢力	-3413
日本国	-3414
方は	-3415
主人公	-3416
に分類	-3417
メル	-3418
しまい	-3419
▁2008	-3420
地元	-3421
姿を	-3422
ストン	-3423
移転	-3424
財政	-3425
駅前	-3426
支払	-3427
げて	-3428
有力	-3429
芸能	-3430
方を	-3431
の結果	-3432
車を	-3433
▁で	-3434
)1	-3435
行って	-3436
が開始	-3437
現実	-3438
ウルト	-3439
中には	-3440
基本的に	-3441
夜の	-3442
.1	-3443
作成	-3444
惑星	-3445
か月	-3446
過程	-3447
地下鉄	-3448
前後	-3449
入れた	-3450
電動	-3451
会社の	-3452
67	-3453
を収	-3454
いてい	-3455
絶対	-3456
あたり	-3457
不足	-3458
のちに	-3459
記憶	-3460
▁8	-3461
語で	-3462
ツィ	-3463
のみで	-3464
2010	-3465
▁利用	-3466
面を	-3467
生徒	-3468
前半	-3469
基地	-3470
放送の	-3471
殺害	-3472
作られた	-3473
最後	-3474
チャンピオン	-3475
進出	-3476
ピアノ	-3477
本当	-3478
ブン	-3479
続いた	-3480
起用	-3481
ターミ	-3482
記事	-3483
おう	-3484
列車が	-3485
に含	-3486
男は	-3487
オーストラ	-3488
所で	-3489
2009	-3490
たとえば	-3491
についての	-3492
こうして	-3493
らを	-3494
まして	-3495
医師	-3496
さは	-3497
免許	-3498
カナダ	-3499
のことを	-3500
ダウン	-3501
逮捕	-3502
新設	-3503
の水	-3504
さまざまな	-3505
秋田	-3506
るところ	-3507
んに	-3508
用意	-3509
そういう	-3510
に出場	-3511
シティ	-3512
63	-3513
に成功	-3514
世界の	-3515
まち	-3516
とり	-3517
番台	-3518
ブルー	-3519
▁駅構造	-3520
父は	-3521
▁5	-3522
扱う	-3523
通常の	-3524
開幕	-3525
オーストラリア	-3526
61	-3527
▁7	-3528
君の	-3529
を与えた	-3530
経由	-3531
三十	-3532
スタイル	-3533
ねた	-3534
▁2009	-3535
武器	-3536
びに	-3537
命名	-3538
ションの	-3539
▁p	-3540
かわ	-3541
笑い	-3542
.8	-3543
に残	-3544
ザン	-3545
拒否	-3546
依頼	-3547
相撲	-3548
広告	-3549
理事	-3550
オーストリア	-3551
度も	-3552
北部	-3553
出た	-3554
日本人	-3555
.2	-3556
吸収	-3557
自らの	-3558
西部	-3559
US	-3560
外交	-3561
クの	-3562
埼玉	-3563
張り	-3564
代わりに	-3565
に登場する	-3566
っていった	-3567
ad	-3568
▁高	-3569
世代	-3570
大阪府	-3571
ir	-3572
していった	-3573
▁2011	-3574
しょ	-3575
女は	-3576
なぜ	-3577
駅から	-3578
は以下の通り	-3579
彼が	-3580
っては	-3581
優秀	-3582
に通	-3583
もん	-3584
戦艦	-3585
OM	-3586
を得た	-3587
取締	-3588
ヒー	-3589
を離	-3590
ラテン	-3591
を意味する	-3592
食品	-3593
長が	-3594
▁2004	-3595
れていた	-3596
に指定	-3597
エピソード	-3598
されると	-3599
いき	-3600
が増	-3601
ドン	-3602
1990	-3603
の先	-3604
が発表	-3605
やら	-3606
反乱	-3607
駆逐	-3608
料金	-3609
複雑	-3610
ウェイ	-3611
博物館	-3612
いち	-3613
如く	-3614
モリ	-3615
不明	-3616
PS	-3617
ユニット	-3618
日平均	-3619
でなく	-3620
にまで	-3621
五郎	-3622
線路	-3623
69	-3624
調べ	-3625
もっとも	-3626
福島	-3627
定め	-3628
を達成	-3629
を提	-3630
なに	-3631
ag	-3632
止め	-3633
を用いた	-3634
見え	-3635
推定	-3636
ind	-3637
話を	-3638
居た	-3639
ゴー	-3640
天皇の	-3641
が可能	-3642
ロット	-3643
動作	-3644
パーク	-3645
団の	-3646
類の	-3647
カトリック	-3648
県立	-3649
を立て	-3650
ルール	-3651
連結	-3652
寺の	-3653
ポーランド	-3654
を集	-3655
)2	-3656
めぐ	-3657
発着	-3658
突き	-3659
実行	-3660
乗車人員	-3661
デュ	-3662
実は	-3663
ではなかった	-3664
シャン	-3665
した後	-3666
手段	-3667
バスの	-3668
をな	-3669
分割	-3670
名誉	-3671
材料	-3672
▁北	-3673
練習	-3674
演劇	-3675
必要な	-3676
コンビ	-3677
ヴァン	-3678
は全	-3679
学園	-3680
ところで	-3681
レベル	-3682
ごう	-3683
ミア	-3684
が現	-3685
カール	-3686
同一	-3687
駅間	-3688
月号	-3689
ここに	-3690
ウルトラ	-3691
論文	-3692
は何	-3693
ッキ	-3694
を買	-3695
興味	-3696
海の	-3697
)10	-3698
頭の	-3699
72	-3700
イオン	-3701
時代は	-3702
TV	-3703
モノ	-3704
がその	-3705
法は	-3706
時計	-3707
古典	-3708
鹿児島	-3709
フォル	-3710
だけの	-3711
特定の	-3712
見える	-3713
小林	-3714
市に	-3715
という意味	-3716
くなった	-3717
を設立	-3718
明確	-3719
ものであった	-3720
鈴木	-3721
軍に	-3722
されるが	-3723
たま	-3724
分布	-3725
率が	-3726
開通	-3727
合計	-3728
できず	-3729
くなる	-3730
往復	-3731
時代から	-3732
ソー	-3733
目標	-3734
ガイ	-3735
末に	-3736
事務所	-3737
相対	-3738
通算	-3739
かと	-3740
テナ	-3741
レント	-3742
が出来	-3743
に似	-3744
▁b	-3745
々は	-3746
秀吉	-3747
区域	-3748
に属する	-3749
スイ	-3750
つけた	-3751
を形成	-3752
場合がある	-3753
エジ	-3754
会員	-3755
と考えられる	-3756
ことになる	-3757
、2005	-3758
.3	-3759
モード	-3760
脚本	-3761
率いる	-3762
に渡	-3763
イレ	-3764
上は	-3765
ろん	-3766
承認	-3767
伸び	-3768
月場所	-3769
新宿	-3770
ニコ	-3771
フィン	-3772
区の	-3773
混乱	-3774
法が	-3775
それまで	-3776
挙げられる	-3777
明らかに	-3778
三菱	-3779
なので	-3780
を奪	-3781
状の	-3782
小型	-3783
体に	-3784
はや	-3785
ペル	-3786
スペース	-3787
線と	-3788
の両	-3789
点から	-3790
に入る	-3791
生まれた	-3792
になつて	-3793
フォード	-3794
▁2020	-3795
らと	-3796
ることも	-3797
に際	-3798
利益	-3799
資金	-3800
マラ	-3801
AP	-3802
呼称	-3803
神の	-3804
黒い	-3805
ものと	-3806
、2006	-3807
唯一	-3808
心理	-3809
を守	-3810
以前は	-3811
陸上	-3812
を演	-3813
漢字	-3814
ドー	-3815
線に	-3816
ですから	-3817
明る	-3818
を上	-3819
ファミ	-3820
じょう	-3821
の花	-3822
一般的	-3823
政党	-3824
71	-3825
を与え	-3826
ベト	-3827
翌年	-3828
を引	-3829
起源	-3830
加盟	-3831
の原	-3832
号は	-3833
小田	-3834
よし	-3835
▁、	-3836
要請	-3837
ギリシア	-3838
であれば	-3839
考えた	-3840
近い	-3841
の方が	-3842
ターミナル	-3843
と思った	-3844
以て	-3845
点は	-3846
リアム	-3847
▁&	-3848
けば	-3849
本来	-3850
時期に	-3851
▁地理	-3852
▁その他	-3853
帰国	-3854
、2010	-3855
ニャ	-3856
の一種	-3857
見る	-3858
作品は	-3859
ひろ	-3860
を越	-3861
同様の	-3862
考慮	-3863
負担	-3864
2003	-3865
で放送	-3866
。3	-3867
通過	-3868
あが	-3869
即位	-3870
はなく	-3871
リンク	-3872
▁一方	-3873
姿勢	-3874
化の	-3875
およそ	-3876
有名な	-3877
線で	-3878
サラ	-3879
遺産	-3880
居住	-3881
大和	-3882
審査	-3883
することも	-3884
▁2012	-3885
社が	-3886
スマ	-3887
学科	-3888
戦を	-3889
エイ	-3890
ラスト	-3891
解決	-3892
、17	-3893
彼らは	-3894
放射	-3895
うる	-3896
地域の	-3897
武蔵	-3898
自身が	-3899
身の	-3900
中は	-3901
かも知	-3902
旅客鉄道	-3903
半分	-3904
ことである	-3905
後期	-3906
乗降	-3907
▁に	-3908
▁人物	-3909
合流	-3910
さあ	-3911
正確	-3912
持つ	-3913
からなる	-3914
▁=	-3915
在籍	-3916
ED	-3917
座席	-3918
道具	-3919
を踏	-3920
アウト	-3921
点で	-3922
実際には	-3923
熊本	-3924
ールズ	-3925
テロ	-3926
最初に	-3927
保守	-3928
翻訳	-3929
ドライ	-3930
徐々に	-3931
、2000	-3932
付けた	-3933
突然	-3934
▁9	-3935
デイ	-3936
というのは	-3937
マリ	-3938
に入った	-3939
組み合わせ	-3940
判明	-3941
ウイル	-3942
五十	-3943
見ると	-3944
)12	-3945
二人の	-3946
占領	-3947
口を	-3948
戦略	-3949
ia	-3950
考える	-3951
に伴う	-3952
に住	-3953
79	-3954
ばれた	-3955
相談	-3956
とも呼ばれる	-3957
、11	-3958
気を	-3959
のもと	-3960
らす	-3961
スコット	-3962
最終的に	-3963
沿岸	-3964
歴代	-3965
衝突	-3966
深夜	-3967
まるで	-3968
知り	-3969
活用	-3970
年代に	-3971
であることを	-3972
務省	-3973
なき	-3974
潜水	-3975
そうな	-3976
らせ	-3977
、2007	-3978
を持っている	-3979
近年	-3980
セー	-3981
走行	-3982
衛星	-3983
ET	-3984
約束	-3985
400	-3986
強制	-3987
教皇	-3988
...	-3989
共産党	-3990
くに	-3991
の戦い	-3992
街道	-3993
向き	-3994
サイド	-3995
)7	-3996
管轄	-3997
▁2015	-3998
レッド	-3999
前述の	-4000
明らか	-4001
実質	-4002
の間に	-4003
為に	-4004
▁――	-4005
これらは	-4006
明智	-4007
研究所	-4008
録音	-4009
を表す	-4010
日本で	-4011
シック	-4012
町村	-4013
そうして	-4014
のではないか	-4015
あん	-4016
川崎	-4017
いくつかの	-4018
児童	-4019
アント	-4020
防御	-4021
この頃	-4022
らに	-4023
寄り	-4024
ヶ月	-4025
ap	-4026
ポルト	-4027
廃止された	-4028
が発売	-4029
を取得	-4030
政府は	-4031
おそ	-4032
どちら	-4033
任務	-4034
プラン	-4035
予想	-4036
を大	-4037
でもない	-4038
と思われる	-4039
気に	-4040
を始め	-4041
らん	-4042
セイ	-4043
やま	-4044
2001	-4045
しむ	-4046
されるようになった	-4047
きょう	-4048
クリス	-4049
向けの	-4050
世に	-4051
云う	-4052
ミサイ	-4053
とも言	-4054
88	-4055
武田	-4056
遺跡	-4057
達は	-4058
に加え	-4059
上げる	-4060
感情	-4061
ut	-4062
ニッ	-4063
文献	-4064
スタジアム	-4065
又は	-4066
GP	-4067
ボード	-4068
ベット	-4069
吉田	-4070
文明	-4071
ふと	-4072
サート	-4073
帝国の	-4074
東部	-4075
転換	-4076
年にかけて	-4077
などから	-4078
ものだ	-4079
を打	-4080
守護	-4081
化する	-4082
であって	-4083
類似	-4084
の世界	-4085
相違	-4086
後には	-4087
ることがある	-4088
そば	-4089
って来た	-4090
証拠	-4091
ることになった	-4092
▁17	-4093
現在も	-4094
者と	-4095
補助	-4096
閉鎖	-4097
わざ	-4098
したものの	-4099
oc	-4100
プロデューサー	-4101
クロス	-4102
流の	-4103
措置	-4104
ソフトウェア	-4105
ブラジ	-4106
彼女の	-4107
ダイヤ改正	-4108
使い	-4109
▁2016	-4110
となったが	-4111
が成立	-4112
わずか	-4113
内部	-4114
親王	-4115
家康	-4116
エト	-4117
2)	-4118
王座	-4119
ヘッド	-4120
予備	-4121
地が	-4122
エジプト	-4123
戦隊	-4124
を見せ	-4125
に就	-4126
名で	-4127
▁2022	-4128
発足	-4129
こち	-4130
を流	-4131
用途	-4132
思う	-4133
を担	-4134
が行われる	-4135
モーター	-4136
kg	-4137
半ば	-4138
自分が	-4139
66	-4140
と同じく	-4141
レーター	-4142
したと	-4143
ギリシャ	-4144
と改	-4145
▁経歴	-4146
▁2019	-4147
号の	-4148
国王	-4149
それらの	-4150
各種	-4151
あらゆる	-4152
下さい	-4153
社会主義	-4154
........	-4155
解放	-4156
の元	-4157
ルは	-4158
どうして	-4159
その後は	-4160
ソナ	-4161
割り	-4162
協定	-4163
ながらも	-4164
用に	-4165
満た	-4166
事の	-4167
▁2021	-4168
機体	-4169
を退	-4170
河川	-4171
むしろ	-4172
これも	-4173
提携	-4174
岐阜	-4175
からない	-4176
に敗	-4177
▁同	-4178
▁()	-4179
を務める	-4180
心配	-4181
高速道路	-4182
打撃	-4183
といい	-4184
▁/	-4185
如何	-4186
をう	-4187
ビジ	-4188
、16	-4189
働き	-4190
、2008	-4191
ナイト	-4192
降り	-4193
自転	-4194
ており	-4195
右衛門	-4196
戦国	-4197
▁山	-4198
ID	-4199
に相当	-4200
海上	-4201
DVD	-4202
▁生涯	-4203
が高	-4204
医学	-4205
年からは	-4206
りば	-4207
がいる	-4208
▁利用状況	-4209
を備	-4210
何も	-4211
司令官	-4212
性は	-4213
印象	-4214
平安	-4215
▁2013	-4216
全日本	-4217
午前	-4218
に限	-4219
このとき	-4220
この時	-4221
使用された	-4222
歌手	-4223
76	-4224
十字	-4225
足利	-4226
2002	-4227
▁元	-4228
かせ	-4229
を経由	-4230
無人	-4231
結び	-4232
の最	-4233
撤去	-4234
が付	-4235
まつ	-4236
チャンネル	-4237
昇格	-4238
流行	-4239
挑戦	-4240
位は	-4241
に位置する	-4242
点の	-4243
象徴	-4244
と呼ばれた	-4245
合格	-4246
連れて	-4247
駅は	-4248
芝居	-4249
防止	-4250
)5	-4251
と結婚	-4252
をあ	-4253
版の	-4254
。』	-4255
自治体	-4256
鉄道の	-4257
のみならず	-4258
ホン	-4259
注目	-4260
といって	-4261
エリ	-4262
再建	-4263
インタビュー	-4264
単純	-4265
ハウス	-4266
ついて	-4267
コス	-4268
ay	-4269
爆発	-4270
境界	-4271
量が	-4272
そうに	-4273
へは	-4274
年以降	-4275
等は	-4276
ウィリアム	-4277
スル	-4278
始める	-4279
例の	-4280
図書館	-4281
母は	-4282
世紀の	-4283
数字	-4284
全体の	-4285
イスラム	-4286
73	-4287
年代後半	-4288
ごく	-4289
コマ	-4290
シュー	-4291
ub	-4292
ニン	-4293
業界	-4294
運賃	-4295
▁2014	-4296
フは	-4297
スポン	-4298
ビット	-4299
、、	-4300
午後	-4301
タク	-4302
披露	-4303
オート	-4304
本部	-4305
建物	-4306
をた	-4307
とお	-4308
を変	-4309
、15	-4310
)6	-4311
点が	-4312
、2009	-4313
コンサート	-4314
石の	-4315
例外	-4316
▁あ	-4317
予算	-4318
休止	-4319
携帯	-4320
サブ	-4321
北条	-4322
190	-4323
宮城	-4324
に反	-4325
後継	-4326
ルイ	-4327
▁明治	-4328
しつつ	-4329
とを	-4330
の音	-4331
投資	-4332
話題	-4333
ールは	-4334
べく	-4335
送り	-4336
)9	-4337
に就任した	-4338
せい	-4339
震災	-4340
アマ	-4341
主催	-4342
仲間	-4343
に陥	-4344
イルランド	-4345
の意味	-4346
をは	-4347
に留	-4348
月より	-4349
▁U	-4350
聞き	-4351
ベトナム	-4352
外部	-4353
eg	-4354
事例	-4355
分子	-4356
レート	-4357
をもつ	-4358
再生	-4359
の場合は	-4360
2011	-4361
譲渡	-4362
を結成	-4363
EN	-4364
だよ	-4365
を終	-4366
スタント	-4367
アリ	-4368
近鉄	-4369
ガラス	-4370
スリ	-4371
存在した	-4372
を持った	-4373
ブロック	-4374
アッ	-4375
であらう	-4376
ロゴ	-4377
とが	-4378
を使う	-4379
するようになった	-4380
改修	-4381
一般的な	-4382
.4	-4383
の開発	-4384
ですか	-4385
作品を	-4386
赤い	-4387
見て	-4388
アカデ	-4389
-0	-4390
を発見	-4391
ベー	-4392
を用い	-4393
ri	-4394
リーム	-4395
したがって	-4396
の娘	-4397
趣味	-4398
されなかった	-4399
が行われている	-4400
違う	-4401
▁2003	-4402
することになった	-4403
ミュージック	-4404
レオ	-4405
▁2017	-4406
TR	-4407
そも	-4408
佐藤	-4409
したい	-4410
してしまう	-4411
-2	-4412
でもあった	-4413
二人	-4414
1980	-4415
使用されている	-4416
定着	-4417
編入	-4418
輸出	-4419
高度	-4420
声で	-4421
ゆえ	-4422
場を	-4423
四国	-4424
一人の	-4425
▁日本の	-4426
弟子	-4427
時間帯	-4428
待ち	-4429
戦士	-4430
であっても	-4431
政府の	-4432
の一人	-4433
がこの	-4434
すら	-4435
の中から	-4436
学習	-4437
みた	-4438
▁2018	-4439
▁西	-4440
富山	-4441
上昇	-4442
観客	-4443
激しい	-4444
その後の	-4445
スペシャル	-4446
の色	-4447
まったく	-4448
TO	-4449
職業	-4450
ice	-4451
優先	-4452
へて	-4453
委託	-4454
コスト	-4455
のに対し	-4456
AL	-4457
爆撃	-4458
▁出	-4459
カタ	-4460
、2004	-4461
取得	-4462
手で	-4463
を探	-4464
考えて	-4465
自宅	-4466
需要	-4467
武装	-4468
ケーション	-4469
リード	-4470
其の	-4471
にしても	-4472
装甲	-4473
にし	-4474
を作り	-4475
ロイ	-4476
▁私は	-4477
水を	-4478
守備	-4479
通行	-4480
支那	-4481
(2	-4482
さと	-4483
勤務	-4484
HE	-4485
電力	-4486
ましょう	-4487
が設け	-4488
営業所	-4489
宮崎	-4490
てて	-4491
The	-4492
ナショ	-4493
母の	-4494
いって	-4495
さる	-4496
95	-4497
のだが	-4498
化を	-4499
司会	-4500
戦車	-4501
使われている	-4502
分に	-4503
になつた	-4504
を破	-4505
ましたが	-4506
本拠	-4507
に関して	-4508
週間	-4509
信頼	-4510
国会	-4511
神奈川県	-4512
将棋	-4513
武士	-4514
86	-4515
焼き	-4516
合う	-4517
心に	-4518
は約	-4519
に引き	-4520
判決	-4521
締結	-4522
もとも	-4523
チームの	-4524
姉妹	-4525
op	-4526
の代	-4527
置いて	-4528
繰り	-4529
.7	-4530
へば	-4531
弁護	-4532
.6	-4533
がお	-4534
を渡	-4535
アシ	-4536
伊藤	-4537
非常	-4538
インターチェンジ	-4539
書いて	-4540
発表した	-4541
加入	-4542
テイ	-4543
FM	-4544
見解	-4545
僕の	-4546
するよう	-4547
国は	-4548
)11	-4549
入れて	-4550
最近	-4551
東洋	-4552
云った	-4553
入れる	-4554
足を	-4555
といわれる	-4556
リーの	-4557
っくり	-4558
測定	-4559
プレイヤー	-4560
外に	-4561
示す	-4562
短い	-4563
国に	-4564
ギター	-4565
負け	-4566
ows	-4567
場合に	-4568
という言葉	-4569
描写	-4570
青森	-4571
ドーム	-4572
▁日	-4573
キュー	-4574
著書	-4575
どうも	-4576
急に	-4577
記者	-4578
指名	-4579
の歴史	-4580
89	-4581
最多	-4582
始まり	-4583
興行	-4584
風に	-4585
が設置されている	-4586
ハム	-4587
マク	-4588
の際に	-4589
をしていた	-4590
参考	-4591
院の	-4592
St	-4593
印刷	-4594
繋が	-4595
財産	-4596
他にも	-4597
ぶん	-4598
エド	-4599
進行	-4600
設立された	-4601
フェン	-4602
だい	-4603
)8	-4604
交響	-4605
グリーン	-4606
くな	-4607
レット	-4608
に対しては	-4609
インディ	-4610
ッピ	-4611
ワシ	-4612
ふる	-4613
云ふ	-4614
上野	-4615
刑事	-4616
ていく	-4617
あく	-4618
男が	-4619
整理	-4620
だけは	-4621
塗装	-4622
眼を	-4623
列車は	-4624
盛り	-4625
のまま	-4626
かね	-4627
予選	-4628
ズが	-4629
するのは	-4630
の前に	-4631
週刊	-4632
都合	-4633
キハ	-4634
かは	-4635
無理	-4636
を除き	-4637
先発	-4638
積極的に	-4639
分岐	-4640
そのような	-4641
態度	-4642
に過ぎ	-4643
を持って	-4644
夫婦	-4645
不安	-4646
の北	-4647
▁主な	-4648
正式に	-4649
▁the	-4650
詳細は	-4651
費用	-4652
頃に	-4653
2012	-4654
いろいろ	-4655
言った	-4656
登板	-4657
水素	-4658
市立	-4659
ものであり	-4660
められる	-4661
るため	-4662
と大	-4663
リット	-4664
わって	-4665
で大	-4666
ちに	-4667
公表	-4668
んでした	-4669
話し	-4670
目は	-4671
室の	-4672
時間が	-4673
れの	-4674
かけた	-4675
を発表した	-4676
清水	-4677
ツァ	-4678
わたく	-4679
やかな	-4680
実際の	-4681
であるという	-4682
山は	-4683
山田	-4684
先の	-4685
その結果	-4686
ジャパン	-4687
修正	-4688
当該	-4689
過ご	-4690
つけて	-4691
仕事を	-4692
月まで	-4693
SF	-4694
を学	-4695
愛称	-4696
AD	-4697
死んだ	-4698
山本	-4699
のみの	-4700
ちょっと	-4701
収容	-4702
ることが多い	-4703
の全	-4704
いつも	-4705
があったが	-4706
神話	-4707
中村	-4708
出来る	-4709
せられた	-4710
上陸	-4711
構築	-4712
部分は	-4713
想像	-4714
ブーム	-4715
伝え	-4716
暗殺	-4717
付けられた	-4718
ていった	-4719
プリン	-4720
無線	-4721
根拠	-4722
馬の	-4723
に由来する	-4724
▁f	-4725
を招	-4726
力で	-4727
土曜	-4728
をもたら	-4729
してしまった	-4730
▁formula	-4731
店の	-4732
次に	-4733
フの	-4734
スポ	-4735
indows	-4736
依存	-4737
アイルランド	-4738
くれる	-4739
IT	-4740
えず	-4741
家臣	-4742
平日	-4743
口の	-4744
表面	-4745
二つの	-4746
しかった	-4747
コンク	-4748
タレント	-4749
フランク	-4750
かず	-4751
共演	-4752
かを	-4753
ぼく	-4754
▁16	-4755
150	-4756
度目の	-4757
を獲得した	-4758
もまた	-4759
川は	-4760
長期	-4761
じている	-4762
、2011	-4763
600	-4764
85	-4765
74	-4766
アクセス	-4767
指示	-4768
下で	-4769
戦い	-4770
松本	-4771
てた	-4772
政治家	-4773
ひど	-4774
ブー	-4775
こな	-4776
の中でも	-4777
出来ない	-4778
観察	-4779
監督の	-4780
へ移	-4781
などでは	-4782
課程	-4783
書籍	-4784
個の	-4785
くい	-4786
蒸気	-4787
行われている	-4788
に乗り	-4789
年で	-4790
資源	-4791
を強	-4792
人工	-4793
体系	-4794
取締役	-4795
駆動	-4796
今の	-4797
競争	-4798
シュタ	-4799
時刻	-4800
.9	-4801
千代	-4802
側面	-4803
作り	-4804
台の	-4805
▁1990	-4806
下が	-4807
メキシ	-4808
を通して	-4809
人形	-4810
植民地	-4811
も存在する	-4812
当選	-4813
ランキング	-4814
モンゴル	-4815
おい	-4816
学問	-4817
ではあるが	-4818
かして	-4819
スポンサー	-4820
交代	-4821
、1990	-4822
場面	-4823
一覧	-4824
人類	-4825
じめ	-4826
▁そして	-4827
ブラック	-4828
無料	-4829
を求める	-4830
リュ	-4831
で構成	-4832
したことで	-4833
で一	-4834
城の	-4835
▁12	-4836
にいた	-4837
山脈	-4838
領土	-4839
ルド	-4840
自殺	-4841
であったため	-4842
訴訟	-4843
地方の	-4844
を見る	-4845
ジット	-4846
ときは	-4847
を使って	-4848
トイレ	-4849
これまで	-4850
国境	-4851
機種	-4852
からだ	-4853
スウェー	-4854
の対象	-4855
ソビ	-4856
▁日本では	-4857
ce	-4858
保有	-4859
遠く	-4860
っしゃ	-4861
レッ	-4862
はお	-4863
ers	-4864
彼らの	-4865
まん	-4866
かもし	-4867
階段	-4868
発生した	-4869
こちら	-4870
カバー	-4871
時から	-4872
期には	-4873
終了した	-4874
日曜	-4875
前から	-4876
達の	-4877
ホル	-4878
兵士	-4879
発表された	-4880
の中では	-4881
松平	-4882
口は	-4883
シリア	-4884
列車の	-4885
社は	-4886
中国の	-4887
差別	-4888
ロボット	-4889
の歌	-4890
CP	-4891
っぽ	-4892
を導入	-4893
と評	-4894
採用された	-4895
上げて	-4896
得点	-4897
アカデミー	-4898
の女	-4899
プラス	-4900
なかなか	-4901
が流	-4902
の方へ	-4903
執行	-4904
込まれた	-4905
っきり	-4906
もあるが	-4907
ミサイル	-4908
天然	-4909
劇団	-4910
思ひ	-4911
著名	-4912
内には	-4913
完了	-4914
自社	-4915
事で	-4916
の存在	-4917
とみ	-4918
デス	-4919
なさい	-4920
の関係	-4921
ごとく	-4922
2,	-4923
フィルム	-4924
ネーム	-4925
使う	-4926
マリア	-4927
いない	-4928
吉は	-4929
過去の	-4930
サポート	-4931
関数	-4932
場は	-4933
チュア	-4934
を表明	-4935
必ずしも	-4936
で行われた	-4937
OC	-4938
ミル	-4939
側が	-4940
書く	-4941
復興	-4942
放送局	-4943
内は	-4944
ウッド	-4945
テレビドラマ	-4946
の乱	-4947
ますと	-4948
ものがある	-4949
▁0	-4950
暗い	-4951
自民	-4952
だって	-4953
』、	-4954
当然	-4955
書かれた	-4956
該当	-4957
とても	-4958
、2012	-4959
聖書	-4960
急速	-4961
想定	-4962
エスト	-4963
と同様	-4964
を負	-4965
出力	-4966
気持	-4967
評論	-4968
-3	-4969
を提供	-4970
ミス	-4971
づく	-4972
同時	-4973
を中心とした	-4974
アス	-4975
総称	-4976
メキシコ	-4977
妙な	-4978
るの	-4979
申請	-4980
を用いる	-4981
1970	-4982
バージョン	-4983
の問題	-4984
停留所	-4985
抜け	-4986
間を	-4987
UN	-4988
と表記	-4989
現存	-4990
東海道	-4991
1999	-4992
次ぐ	-4993
育成	-4994
ソング	-4995
。4	-4996
するも	-4997
に影響	-4998
伝承	-4999
成分	-5000
に応じて	-5001
ak	-5002
ディスク	-5003
みると	-5004
大学院	-5005
されたため	-5006
割合	-5007
継が	-5008
の下に	-5009
織田	-5010
加藤	-5011
を卒業	-5012
og	-5013
ナチ	-5014
ツェ	-5015
周波	-5016
様子	-5017
捜査	-5018
分裂	-5019
クトル	-5020
世が	-5021
を出す	-5022
自動車道	-5023
テキ	-5024
総選挙	-5025
)、『	-5026
理想	-5027
をつけ	-5028
日本テレビ	-5029
時点では	-5030
フォーム	-5031
ムの	-5032
されてきた	-5033
フィールド	-5034
家を	-5035
ファイル	-5036
レオン	-5037
マイクロ	-5038
数学	-5039
年度の	-5040
頭を	-5041
病気	-5042
カット	-5043
そこから	-5044
国土	-5045
要因	-5046
ソビエト	-5047
しを	-5048
故障	-5049
▁各	-5050
回路	-5051
集落	-5052
▁2002	-5053
の際	-5054
へ出	-5055
気象	-5056
氏が	-5057
立った	-5058
我が	-5059
にその	-5060
しら	-5061
パッ	-5062
記号	-5063
じられた	-5064
も多く	-5065
使用する	-5066
まく	-5067
してゐる	-5068
を築	-5069
ティン	-5070
駆け	-5071
文庫	-5072
職員	-5073
パソ	-5074
ベイ	-5075
血液	-5076
わっている	-5077
の木	-5078
っていて	-5079
違反	-5080
に貢献	-5081
年現在	-5082
離れた	-5083
のひとつ	-5084
クロー	-5085
府県	-5086
目で	-5087
を得て	-5088
開発された	-5089
2020	-5090
られなかった	-5091
が見られる	-5092
者や	-5093
を得る	-5094
パク	-5095
出される	-5096
▁駅周辺	-5097
きは	-5098
消防	-5099
▁さ	-5100
部品	-5101
一は	-5102
文化財	-5103
が大きく	-5104
▁今	-5105
師団	-5106
多摩	-5107
欧米	-5108
▁2001	-5109
巡洋	-5110
ヤン	-5111
大規模な	-5112
独特	-5113
学院	-5114
ドロ	-5115
プス	-5116
夏の	-5117
してお	-5118
トルコ	-5119
ミネ	-5120
ヴェル	-5121
等を	-5122
かどうか	-5123
様式	-5124
GM	-5125
を打ち	-5126
レスト	-5127
既存	-5128
買収	-5129
まっている	-5130
出する	-5131
ES	-5132
っていく	-5133
知られ	-5134
の中央	-5135
平野	-5136
ハンガ	-5137
オーバー	-5138
レコー	-5139
ヴァイ	-5140
引き続き	-5141
名義	-5142
行な	-5143
入学	-5144
合意	-5145
を見ると	-5146
批評	-5147
ロケット	-5148
当初の	-5149
端に	-5150
▁St	-5151
を選	-5152
てる	-5153
男女	-5154
いくら	-5155
なんて	-5156
に代	-5157
いたが	-5158
将来	-5159
いえ	-5160
たず	-5161
昇進	-5162
IV	-5163
放映	-5164
▁長	-5165
到達	-5166
プロダ	-5167
ッター	-5168
、2003	-5169
フィー	-5170
2014	-5171
とする説	-5172
開設	-5173
兵庫県	-5174
av	-5175
福井	-5176
感じた	-5177
知らない	-5178
化が	-5179
年間の	-5180
ティスト	-5181
は下	-5182
96	-5183
ークス	-5184
緊急	-5185
もちろん	-5186
だつた	-5187
参謀	-5188
一般的に	-5189
創業	-5190
誰も	-5191
が出来る	-5192
滞在	-5193
石油	-5194
廃車	-5195
▁カ	-5196
田市	-5197
と語っている	-5198
の中の	-5199
を与える	-5200
幅に	-5201
レル	-5202
フェル	-5203
なくなる	-5204
勿論	-5205
との間に	-5206
よいよ	-5207
を目的	-5208
連携	-5209
久保	-5210
商店	-5211
度に	-5212
王子	-5213
みを	-5214
模様	-5215
下げ	-5216
連れ	-5217
を代表	-5218
援助	-5219
すこ	-5220
離脱	-5221
身体	-5222
を命	-5223
自分は	-5224
繁殖	-5225
ることになる	-5226
81	-5227
成り	-5228
に終わった	-5229
したものである	-5230
どれ	-5231
ジラ	-5232
のだった	-5233
登場人物	-5234
番の	-5235
得る	-5236
等が	-5237
ハリ	-5238
流通	-5239
意図	-5240
ることとなった	-5241
▁旧	-5242
うた	-5243
シカ	-5244
助け	-5245
低く	-5246
800	-5247
状態で	-5248
サンド	-5249
連の	-5250
存在しない	-5251
男子	-5252
する場合	-5253
村は	-5254
操縦	-5255
の各	-5256
でございます	-5257
抜き	-5258
体験	-5259
官の	-5260
大阪市	-5261
流域	-5262
死去した	-5263
英国	-5264
にとど	-5265
画像	-5266
2015	-5267
。10	-5268
ものに	-5269
メロ	-5270
大名	-5271
走り	-5272
阪急	-5273
慶長	-5274
標高	-5275
かかる	-5276
語は	-5277
を続け	-5278
▁これ	-5279
行して	-5280
大使	-5281
降伏	-5282
此の	-5283
▁である	-5284
ねる	-5285
ローカル	-5286
災害	-5287
東映	-5288
は不明	-5289
三重	-5290
通勤	-5291
損害	-5292
都道	-5293
するように	-5294
に仕	-5295
のマ	-5296
そうだ	-5297
すこと	-5298
八幡	-5299
新型	-5300
辞任	-5301
君主	-5302
が出て	-5303
瀬戸	-5304
誘導	-5305
ゆう	-5306
を要	-5307
ブラジル	-5308
取った	-5309
ならなかった	-5310
2013	-5311
▁南	-5312
内では	-5313
ab	-5314
スキ	-5315
▁g	-5316
銀河	-5317
と主張	-5318
せう	-5319
分解	-5320
効率	-5321
を除いて	-5322
実用	-5323
した場合	-5324
事も	-5325
感覚	-5326
疑問	-5327
政治的	-5328
不可	-5329
パワー	-5330
で最も	-5331
裁判所	-5332
車両の	-5333
質の	-5334
からず	-5335
取材	-5336
ウント	-5337
オペラ	-5338
アム	-5339
▁略	-5340
タリー	-5341
解体	-5342
、1980	-5343
巨人	-5344
ul	-5345
代表的な	-5346
決定した	-5347
大きさ	-5348
年代の	-5349
められている	-5350
を繰り返	-5351
経過	-5352
文章	-5353
神宮	-5354
事件の	-5355
▁という	-5356
であることが	-5357
ませんでした	-5358
が悪	-5359
形は	-5360
駆逐艦	-5361
信用	-5362
に沿	-5363
優れた	-5364
が認め	-5365
種類の	-5366
圧倒	-5367
売却	-5368
遠征	-5369
事実上	-5370
二つ	-5371
1998	-5372
メジャー	-5373
現在でも	-5374
経路	-5375
つてゐた	-5376
をや	-5377
空母	-5378
を務め	-5379
に入ると	-5380
香港	-5381
ぐる	-5382
君が	-5383
もっと	-5384
MA	-5385
代理	-5386
nd	-5387
ロング	-5388
美術館	-5389
を切	-5390
▁東京	-5391
主義の	-5392
権の	-5393
推移	-5394
二人は	-5395
体育	-5396
▁15	-5397
の一つである	-5398
やつ	-5399
マド	-5400
空の	-5401
命を	-5402
シリーズの	-5403
画面	-5404
その時	-5405
▁それ	-5406
周辺の	-5407
警備	-5408
ウォー	-5409
ワイド	-5410
へ帰	-5411
本線の	-5412
四十	-5413
通路	-5414
つい	-5415
を基	-5416
82	-5417
内容は	-5418
爆弾	-5419
アプリ	-5420
てん	-5421
だか	-5422
推測	-5423
ess	-5424
天文	-5425
ブラン	-5426
和歌山	-5427
朝廷	-5428
コミック	-5429
コメント	-5430
きている	-5431
光の	-5432
接触	-5433
月末	-5434
年連続	-5435
BA	-5436
確定	-5437
上記の	-5438
を増	-5439
を兼	-5440
生涯	-5441
かた	-5442
絵画	-5443
なかったため	-5444
ですよ	-5445
を展開	-5446
務員	-5447
回り	-5448
愛知県	-5449
を超える	-5450
リュー	-5451
学校の	-5452
本は	-5453
テレビアニメ	-5454
▁バス	-5455
置いた	-5456
ポジ	-5457
田駅	-5458
ウィン	-5459
加工	-5460
船の	-5461
万石	-5462
建設された	-5463
次元	-5464
を名	-5465
知事	-5466
ist	-5467
▁正	-5468
が含	-5469
歩兵	-5470
授与	-5471
忘れ	-5472
のだろう	-5473
オーディ	-5474
ポスト	-5475
わけではない	-5476
炭素	-5477
は同	-5478
中間	-5479
負傷	-5480
ベルク	-5481
主要な	-5482
続ける	-5483
用いられ	-5484
、2014	-5485
91	-5486
に基づき	-5487
▁全	-5488
可能性がある	-5489
未満	-5490
話が	-5491
しめ	-5492
ネタ	-5493
自衛隊	-5494
両親	-5495
ケーブル	-5496
ベルリン	-5497
南西	-5498
▁交通	-5499
徹底	-5500
症状	-5501
格闘	-5502
▁彼は	-5503
走る	-5504
を作る	-5505
一体	-5506
気温	-5507
浴び	-5508
今度は	-5509
活躍した	-5510
切れ	-5511
フィル	-5512
ですが	-5513
92	-5514
井上	-5515
人や	-5516
のであります	-5517
を行っていた	-5518
年末	-5519
毎週	-5520
子と	-5521
中でも	-5522
音声	-5523
リニュー	-5524
ちょうど	-5525
グロ	-5526
リと	-5527
戦死	-5528
▁in	-5529
と言われている	-5530
法則	-5531
97	-5532
新規	-5533
温度	-5534
例として	-5535
リコ	-5536
馬鹿	-5537
から出	-5538
にとっては	-5539
存続	-5540
何の	-5541
非難	-5542
▁X	-5543
奴隷	-5544
前提	-5545
難しい	-5546
2019	-5547
2016	-5548
及ぶ	-5549
山に	-5550
▁同年	-5551
信じ	-5552
▁1980	-5553
リニューアル	-5554
方言	-5555
発射	-5556
室町	-5557
追放	-5558
四郎	-5559
、2013	-5560
大分	-5561
良く	-5562
を出した	-5563
▁n	-5564
権限	-5565
込まれ	-5566
っぱり	-5567
に加えて	-5568
衆議院議員	-5569
防ぐ	-5570
へん	-5571
宣伝	-5572
だという	-5573
天井	-5574
ないが	-5575
、2015	-5576
▁\	-5577
犠牲	-5578
めに	-5579
駅に	-5580
を持っていた	-5581
互いに	-5582
なあ	-5583
当主	-5584
車に	-5585
最低	-5586
と言われる	-5587
ワールドカップ	-5588
87	-5589
千葉県	-5590
高さ	-5591
侵入	-5592
現代の	-5593
ドラゴン	-5594
をかけて	-5595
読売	-5596
バンク	-5597
▁エ	-5598
ティア	-5599
所を	-5600
殆ど	-5601
対抗	-5602
年と	-5603
2018	-5604
付ける	-5605
あい	-5606
1997	-5607
そのうち	-5608
84	-5609
に入って	-5610
▁水	-5611
隣の	-5612
山形	-5613
民の	-5614
を開催	-5615
は前	-5616
襲撃	-5617
OV	-5618
創刊	-5619
語を	-5620
マッチ	-5621
に向けて	-5622
日が	-5623
。5	-5624
異常	-5625
ついに	-5626
参議院	-5627
短縮	-5628
複合	-5629
ライダー	-5630
SA	-5631
みて	-5632
ぐら	-5633
同士	-5634
人として	-5635
ov	-5636
出会	-5637
みが	-5638
海峡	-5639
BM	-5640
上下	-5641
が発見	-5642
じゃないか	-5643
としたが	-5644
然として	-5645
ことや	-5646
高架	-5647
こともあった	-5648
期は	-5649
うつ	-5650
01	-5651
メカ	-5652
わたしは	-5653
ウイルス	-5654
回る	-5655
交差点	-5656
eb	-5657
藩の	-5658
ていて	-5659
モスク	-5660
始まった	-5661
の一般	-5662
2017	-5663
に変更された	-5664
(3	-5665
使われた	-5666
えると	-5667
中世	-5668
気味	-5669
日常	-5670
ポルトガル	-5671
ナショナル	-5672
るに	-5673
家督	-5674
に出て	-5675
に分け	-5676
アクション	-5677
子供の	-5678
ためである	-5679
ほとんどの	-5680
作は	-5681
海軍の	-5682
ウクライ	-5683
判定	-5684
ナポ	-5685
、2002	-5686
不動	-5687
トレー	-5688
創立	-5689
会場	-5690
リアル	-5691
べて	-5692
ヨタ	-5693
コピー	-5694
をひ	-5695
が担当	-5696
を構成	-5697
ナの	-5698
渡辺	-5699
83	-5700
たけ	-5701
est	-5702
されず	-5703
重量	-5704
元素	-5705
ひとり	-5706
かつての	-5707
はは	-5708
変換	-5709
相手の	-5710
代替	-5711
会見	-5712
小さく	-5713
、2019	-5714
修道	-5715
III	-5716
、――	-5717
マシン	-5718
以外は	-5719
巨大な	-5720
のみが	-5721
われわれ	-5722
即ち	-5723
高橋	-5724
あつた	-5725
夫の	-5726
サウンド	-5727
と比べ	-5728
コミュニティ	-5729
恐怖	-5730
時間は	-5731
のだから	-5732
サス	-5733
よりは	-5734
功績	-5735
たちに	-5736
を巡	-5737
アレク	-5738
怪獣	-5739
寄せ	-5740
立って	-5741
戦に	-5742
を使った	-5743
を避	-5744
ことにより	-5745
リーは	-5746
なくなり	-5747
ッキー	-5748
ナス	-5749
のなか	-5750
が決	-5751
と比較	-5752
構内	-5753
ホイ	-5754
戦は	-5755
間もなく	-5756
年代には	-5757
王朝	-5758
ドライバー	-5759
任意	-5760
ティブ	-5761
のでした	-5762
寺院	-5763
行は	-5764
、2016	-5765
pp	-5766
福祉	-5767
リウス	-5768
簡易	-5769
適切	-5770
と思ふ	-5771
マニ	-5772
ゲー	-5773
んだが	-5774
たった	-5775
死ぬ	-5776
ハンド	-5777
スティー	-5778
球場	-5779
接近	-5780
ビジネス	-5781
コロン	-5782
専用の	-5783
どうした	-5784
SP	-5785
▁ただし	-5786
と言ふ	-5787
ックの	-5788
聞いた	-5789
ちなみに	-5790
者で	-5791
バラエ	-5792
推薦	-5793
ew	-5794
マニア	-5795
ard	-5796
▁11	-5797
レール	-5798
となく	-5799
隣接する	-5800
、1970	-5801
に相当する	-5802
的で	-5803
クレジット	-5804
そうした	-5805
かした	-5806
ヴァー	-5807
今日の	-5808
パーソナ	-5809
が加	-5810
弟の	-5811
フォルニア	-5812
聞こ	-5813
に至った	-5814
ふた	-5815
曲の	-5816
春の	-5817
チーフ	-5818
書を	-5819
おも	-5820
用いられている	-5821
完成した	-5822
しや	-5823
総理	-5824
年生	-5825
途中で	-5826
を果たす	-5827
厳しい	-5828
。7	-5829
用いられた	-5830
山陽	-5831
フー	-5832
配備	-5833
を通過	-5834
IP	-5835
へる	-5836
手術	-5837
ともい	-5838
キャリア	-5839
アーティスト	-5840
れぬ	-5841
未だ	-5842
1996	-5843
ウト	-5844
部分が	-5845
NN	-5846
ざるを得	-5847
攻略	-5848
本土	-5849
発達	-5850
乗り入れ	-5851
戦闘機	-5852
強力	-5853
航空機	-5854
ob	-5855
市は	-5856
番線	-5857
東急	-5858
年後の	-5859
▁a	-5860
だんだ	-5861
ボディ	-5862
日付で	-5863
プロセ	-5864
潜水艦	-5865
こういう	-5866
しかしながら	-5867
不満	-5868
学的	-5869
シップ	-5870
直後に	-5871
外国人	-5872
開発した	-5873
、2020	-5874
口に	-5875
渋谷	-5876
振興	-5877
ine	-5878
アミ	-5879
ケイ	-5880
性に	-5881
エフ	-5882
敗北	-5883
員は	-5884
或は	-5885
とある	-5886
日を	-5887
酸素	-5888
巡洋艦	-5889
モハ	-5890
電波	-5891
保障	-5892
に基づいて	-5893
山城	-5894
地である	-5895
公認	-5896
▁現在	-5897
と呼び	-5898
ハハ	-5899
テム	-5900
設置された	-5901
だれ	-5902
そこへ	-5903
ないし	-5904
ようやく	-5905
を目指す	-5906
小屋	-5907
UR	-5908
額の	-5909
ヴィル	-5910
タンパク	-5911
))	-5912
当たり	-5913
▁や	-5914
。12	-5915
黄色	-5916
養子	-5917
置かれ	-5918
アメリカ合衆国の	-5919
上位	-5920
方で	-5921
点に	-5922
主題	-5923
古くから	-5924
削減	-5925
今は	-5926
みたい	-5927
に面	-5928
島は	-5929
恐れ	-5930
ec	-5931
総裁	-5932
マスター	-5933
抗議	-5934
証言	-5935
それも	-5936
初頭	-5937
演技	-5938
カリフォルニア	-5939
が実施	-5940
原理	-5941
再度	-5942
少なくとも	-5943
路線バス	-5944
殺人	-5945
を維持	-5946
1995	-5947
攻め	-5948
だけが	-5949
した際	-5950
の正	-5951
ジャイ	-5952
各国	-5953
相続	-5954
ハル	-5955
民国	-5956
曲を	-5957
西側	-5958
首を	-5959
Windows	-5960
隊は	-5961
。6	-5962
することとなった	-5963
循環	-5964
年ぶりに	-5965
どころ	-5966
大将	-5967
立派	-5968
ブライ	-5969
三角	-5970
心が	-5971
するか	-5972
リーダー	-5973
ML	-5974
つもり	-5975
▁さらに	-5976
手法	-5977
。8	-5978
司法	-5979
が終	-5980
93	-5981
勃発	-5982
の一環	-5983
中学	-5984
ハンガリー	-5985
運航	-5986
戦争の	-5987
、2017	-5988
石川	-5989
反発	-5990
促進	-5991
森林	-5992
フランシ	-5993
間違	-5994
94	-5995
ティック	-5996
、2001	-5997
ラブ	-5998
満足	-5999
異な	-6000
あれば	-6001
第一次世界大戦	-6002
教え	-6003
映画の	-6004
オスマン	-6005
独立した	-6006
導入された	-6007
士官	-6008
診断	-6009
乗車券	-6010
ユーザー	-6011
作詞	-6012
呼吸	-6013
火災	-6014
グラフィ	-6015
実績	-6016
物に	-6017
達が	-6018
資産	-6019
リアン	-6020
チームは	-6021
変わ	-6022
モンド	-6023
史料	-6024
わせて	-6025
ください	-6026
空襲	-6027
教徒	-6028
ory	-6029
もともと	-6030
危機	-6031
監視	-6032
をはじめとする	-6033
埼玉県	-6034
)、「	-6035
TT	-6036
天正	-6037
成果	-6038
ートの	-6039
ッピング	-6040
パソコン	-6041
ステーション	-6042
日本国内	-6043
に大きな	-6044
明け	-6045
学会	-6046
プレス	-6047
ばれ	-6048
縮小	-6049
、2018	-6050
FI	-6051
中部	-6052
の御	-6053
じい	-6054
京成	-6055
メール	-6056
バイパス	-6057
よろ	-6058
を装備	-6059
っていました	-6060
議長	-6061
をつけて	-6062
名称は	-6063
それまでの	-6064
型は	-6065
ワイト	-6066
と呼ばれている	-6067
京都府	-6068
に当たる	-6069
に同	-6070
話は	-6071
じゅう	-6072
合同	-6073
オフィ	-6074
ランプ	-6075
ジャック	-6076
部長	-6077
2021	-6078
火山	-6079
に任命	-6080
年代から	-6081
数値	-6082
の下で	-6083
素材	-6084
魔法	-6085
受信	-6086
大震災	-6087
元に	-6088
を描いた	-6089
ようとする	-6090
ガニ	-6091
の変	-6092
ガラ	-6093
試作	-6094
目が	-6095
ヒル	-6096
遊び	-6097
フォーク	-6098
を発揮	-6099
人民共和国	-6100
衰退	-6101
を受けている	-6102
!!	-6103
の南	-6104
でござ	-6105
に収録	-6106
と記	-6107
(13	-6108
位置する	-6109
単行	-6110
バード	-6111
ハッ	-6112
派生	-6113
近畿	-6114
ばん	-6115
彼を	-6116
作曲家	-6117
を伝	-6118
島に	-6119
マンの	-6120
ビッグ	-6121
とは異なり	-6122
を認め	-6123
自民党	-6124
さに	-6125
を組	-6126
用いる	-6127
故郷	-6128
さず	-6129
打率	-6130
紛争	-6131
ポル	-6132
多少	-6133
若干	-6134
金沢	-6135
をかけた	-6136
どうしても	-6137
キア	-6138
が盛	-6139
ヤク	-6140
5000	-6141
合わせた	-6142
まし	-6143
カロ	-6144
SC	-6145
処刑	-6146
プロダクション	-6147
るように	-6148
トム	-6149
泣き	-6150
栄養	-6151
田が	-6152
課題	-6153
ph	-6154
いゝ	-6155
▁。	-6156
出され	-6157
女が	-6158
一定の	-6159
ではありません	-6160
だらう	-6161
指導者	-6162
イラスト	-6163
世帯	-6164
自身も	-6165
ダブル	-6166
1993	-6167
フロント	-6168
つづ	-6169
を伴	-6170
事業者	-6171
自身は	-6172
本来の	-6173
むと	-6174
を抑	-6175
ほうが	-6176
ソース	-6177
安打	-6178
恋愛	-6179
フライ	-6180
が登場	-6181
請求	-6182
の使用	-6183
が描	-6184
ることから	-6185
▁アメリカ	-6186
後から	-6187
を置く	-6188
量産	-6189
ジョー	-6190
テープ	-6191
るという	-6192
近郊	-6193
法第	-6194
個体	-6195
センス	-6196
財団	-6197
取って	-6198
1994	-6199
市長	-6200
質問	-6201
機関車	-6202
を放送	-6203
を出して	-6204
包囲	-6205
排除	-6206
略称	-6207
を呼び	-6208
やか	-6209
を迎えた	-6210
離婚	-6211
甲斐	-6212
買い	-6213
ええ	-6214
人生	-6215
ものも	-6216
はなかった	-6217
ネイ	-6218
第二次	-6219
しまいました	-6220
遅れ	-6221
がわ	-6222
以外にも	-6223
書の	-6224
パイロット	-6225
さんに	-6226
ニッポン	-6227
かもしれない	-6228
の姿	-6229
自転車	-6230
曲が	-6231
しなければならない	-6232
言及	-6233
のと	-6234
テレビ朝日	-6235
維新	-6236
トヨタ	-6237
二重	-6238
民衆	-6239
字は	-6240
皇太	-6241
とみな	-6242
地上駅	-6243
▁1999	-6244
にかく	-6245
応援	-6246
重視	-6247
ジェット	-6248
区画	-6249
つける	-6250
の中へ	-6251
北朝鮮	-6252
三国	-6253
せよ	-6254
を無	-6255
岩手	-6256
▁以下	-6257
固有	-6258
を以て	-6259
悪魔	-6260
駐車	-6261
創作	-6262
を記録した	-6263
豊臣	-6264
ここでは	-6265
装着	-6266
ほかに	-6267
イスラエル	-6268
教の	-6269
勢力を	-6270
○○	-6271
上記	-6272
このように	-6273
乾燥	-6274
つても	-6275
市町村	-6276
駅番号は	-6277
メッセ	-6278
議席	-6279
ヒトラー	-6280
祖父	-6281
誕生した	-6282
ターの	-6283
に向かって	-6284
上杉	-6285
ヒュー	-6286
掛けた	-6287
身分	-6288
発音	-6289
に行	-6290
▁国	-6291
激しく	-6292
プロイ	-6293
環状	-6294
リスク	-6295
直ぐ	-6296
理由に	-6297
挨拶	-6298
授業	-6299
風が	-6300
付けて	-6301
のですが	-6302
カレ	-6303
さへ	-6304
代わって	-6305
級の	-6306
イラク	-6307
日本に	-6308
討ち	-6309
かつた	-6310
北陸	-6311
号を	-6312
未来	-6313
証券	-6314
続けて	-6315
if	-6316
ミリ	-6317
形が	-6318
日記	-6319
護衛	-6320
イラン	-6321
動画	-6322
警戒	-6323
幸福	-6324
を使用する	-6325
の同	-6326
再現	-6327
学術	-6328
口から	-6329
CT	-6330
多様	-6331
ウェブ	-6332
に分類される	-6333
射撃	-6334
戦後の	-6335
ベーター	-6336
登山	-6337
してから	-6338
面白	-6339
宮廷	-6340
勝負	-6341
語り	-6342
するまで	-6343
が与	-6344
和田	-6345
征服	-6346
ht	-6347
委員長	-6348
が始まった	-6349
に対抗	-6350
館の	-6351
▁[[	-6352
ようと	-6353
コンセ	-6354
始まる	-6355
歩いて	-6356
サイズ	-6357
制の	-6358
火の	-6359
戦時	-6360
-4	-6361
。9	-6362
も見	-6363
搭乗	-6364
文部	-6365
に入学	-6366
地として	-6367
毛利	-6368
南海	-6369
延伸	-6370
恐ろしい	-6371
しようとする	-6372
オープニング	-6373
のう	-6374
離れ	-6375
いたい	-6376
国際空港	-6377
現地	-6378
理由で	-6379
これから	-6380
るべき	-6381
生成	-6382
数多く	-6383
得られる	-6384
ランク	-6385
側から	-6386
活性	-6387
SS	-6388
習慣	-6389
の真	-6390
伸ば	-6391
ちや	-6392
▁略歴	-6393
わし	-6394
と対戦	-6395
共有	-6396
長野県	-6397
すっかり	-6398
に先	-6399
の顔	-6400
・「	-6401
残り	-6402
したことが	-6403
。2005	-6404
の直	-6405
等に	-6406
歩き	-6407
を発売	-6408
子会社	-6409
を占める	-6410
公開された	-6411
移行	-6412
黄金	-6413
化され	-6414
▁Y	-6415
余り	-6416
▁In	-6417
が集	-6418
二階	-6419
如き	-6420
1960	-6421
向う	-6422
頻繁	-6423
ニス	-6424
一切	-6425
勉強	-6426
ところに	-6427
もあって	-6428
コア	-6429
論理	-6430
マルチ	-6431
ラリー	-6432
国家の	-6433
インチ	-6434
然し	-6435
送信	-6436
入団	-6437
河内	-6438
を読	-6439
継いだ	-6440
を殺	-6441
まない	-6442
スパ	-6443
マネ	-6444
せずに	-6445
で初めて	-6446
に適	-6447
ましい	-6448
時間の	-6449
ボク	-6450
置かれた	-6451
の声	-6452
を支	-6453
ハウ	-6454
やすく	-6455
といえる	-6456
メガ	-6457
電源	-6458
ようになっている	-6459
につなが	-6460
水が	-6461
700	-6462
左衛門	-6463
伊豆	-6464
の主要	-6465
前は	-6466
野の	-6467
相手に	-6468
ウクライナ	-6469
スウェーデン	-6470
どり	-6471
界の	-6472
得意	-6473
風景	-6474
茨城	-6475
滅亡	-6476
br	-6477
十五	-6478
川に	-6479
▁JR	-6480
偶然	-6481
形を	-6482
疾患	-6483
の特	-6484
城を	-6485
基盤	-6486
以外に	-6487
でもあり	-6488
のよ	-6489
マッ	-6490
前で	-6491
がん	-6492
に反対	-6493
義の	-6494
▁サ	-6495
なくな	-6496
UE	-6497
保持	-6498
須賀	-6499
1991	-6500
保安	-6501
になっており	-6502
クイ	-6503
KO	-6504
各地で	-6505
3000	-6506
(14	-6507
番目の	-6508
アリー	-6509
自分で	-6510
原則として	-6511
券売	-6512
カム	-6513
心臓	-6514
ボーイ	-6515
▁かつては	-6516
早い	-6517
北西	-6518
佐賀	-6519
十一	-6520
のことである	-6521
に掲載	-6522
IR	-6523
言葉を	-6524
然と	-6525
ナンバー	-6526
原の	-6527
思った	-6528
はる	-6529
をめぐ	-6530
池田	-6531
騎士	-6532
EM	-6533
キャスター	-6534
再編	-6535
稲田	-6536
の発展	-6537
受け入れ	-6538
TA	-6539
玄関	-6540
応用	-6541
論争	-6542
皇后	-6543
地位	-6544
狭い	-6545
考案	-6546
徳島	-6547
デモ	-6548
司馬	-6549
このうち	-6550
妻の	-6551
気づ	-6552
解析	-6553
少数	-6554
くらい	-6555
きら	-6556
群馬	-6557
を代表する	-6558
を満た	-6559
の有	-6560
鳥取	-6561
はほとんど	-6562
に寄	-6563
豊富	-6564
が開始された	-6565
都道府県	-6566
一帯	-6567
借り	-6568
、14	-6569
上がり	-6570
作品が	-6571
ワシントン	-6572
の見	-6573
振る	-6574
。2006	-6575
スに	-6576
に移籍	-6577
ロマン	-6578
友人	-6579
1989	-6580
を含め	-6581
べし	-6582
ところへ	-6583
フレーム	-6584
を問	-6585
起き	-6586
クラシック	-6587
権威	-6588
運輸	-6589
務大臣	-6590
と言った	-6591
▁1998	-6592
道は	-6593
ホワイト	-6594
を施	-6595
衝撃	-6596
1992	-6597
青い	-6598
ものもある	-6599
かも知れない	-6600
マガ	-6601
先頭	-6602
山市	-6603
することになる	-6604
積み	-6605
ジャンプ	-6606
川が	-6607
局が	-6608
答えた	-6609
と思って	-6610
行列	-6611
人種	-6612
日平均乗車人員	-6613
支店	-6614
くない	-6615
来日	-6616
全米	-6617
十郎	-6618
ローズ	-6619
)』	-6620
通りの	-6621
本が	-6622
互換	-6623
仮面	-6624
色が	-6625
、13	-6626
年以上	-6627
子孫	-6628
長さ	-6629
目的で	-6630
ほんとう	-6631
電気鉄道	-6632
プロテ	-6633
くて	-6634
は本	-6635
たか	-6636
奉行	-6637
▁バ	-6638
乗客	-6639
京都市	-6640
があって	-6641
という説	-6642
何ら	-6643
以前に	-6644
化して	-6645
新人	-6646
解消	-6647
体重	-6648
みられる	-6649
ラグ	-6650
ぶり	-6651
会津	-6652
独占	-6653
教科	-6654
▁v	-6655
バラエティ	-6656
さき	-6657
カッ	-6658
しているため	-6659
門の	-6660
ディーゼル	-6661
開業した	-6662
自体は	-6663
トランス	-6664
を断	-6665
引っ	-6666
に伴って	-6667
する事	-6668
短期	-6669
金曜	-6670
特殊な	-6671
認知	-6672
に比べて	-6673
薩摩	-6674
のであろう	-6675
回避	-6676
満洲	-6677
アラブ	-6678
位で	-6679
につき	-6680
を見せた	-6681
に合わせて	-6682
川駅	-6683
面で	-6684
アイドル	-6685
わなかった	-6686
画家	-6687
ロバート	-6688
▁下	-6689
くなり	-6690
チル	-6691
役の	-6692
スイッチ	-6693
ナポレオン	-6694
国内の	-6695
冒険	-6696
埋め	-6697
都市圏	-6698
条の	-6699
ではないが	-6700
ばかりの	-6701
とは異なる	-6702
題材	-6703
ブロ	-6704
次男	-6705
さし	-6706
権力	-6707
を支持	-6708
限界	-6709
せば	-6710
演説	-6711
相模	-6712
を含めた	-6713
機動戦士	-6714
▁オ	-6715
アレ	-6716
受験	-6717
年前	-6718
ウィーン	-6719
アメリカン	-6720
通常は	-6721
以来の	-6722
パーソナリティ	-6723
メディ	-6724
、2022	-6725
幼少	-6726
つてゐ	-6727
ですね	-6728
と一緒に	-6729
グランプリ	-6730
SU	-6731
と言い	-6732
海洋	-6733
英雄	-6734
りゃ	-6735
設置されている	-6736
たちを	-6737
ワイン	-6738
コロナ	-6739
ゼロ	-6740
同社	-6741
に入れ	-6742
が異なる	-6743
避難	-6744
。11	-6745
ファミリー	-6746
方から	-6747
宝塚	-6748
▁("	-6749
エース	-6750
を起	-6751
に従って	-6752
と対	-6753
訪問	-6754
▁1970	-6755
航路	-6756
もその	-6757
聞いて	-6758
飛ば	-6759
線を有する	-6760
水戸	-6761
師匠	-6762
IG	-6763
これで	-6764
踏切	-6765
業績	-6766
比例	-6767
量を	-6768
、190	-6769
ようである	-6770
PR	-6771
形に	-6772
ヘンリー	-6773
パターン	-6774
がた	-6775
180	-6776
レコーディング	-6777
創造	-6778
大橋	-6779
きたい	-6780
さらには	-6781
品の	-6782
国が	-6783
モニ	-6784
art	-6785
行っている	-6786
マグ	-6787
年も	-6788
期限	-6789
あったが	-6790
BO	-6791
ボタン	-6792
武将	-6793
。17	-6794
ってしまった	-6795
雇用	-6796
おそらく	-6797
ジェーム	-6798
は高	-6799
各地の	-6800
版では	-6801
量に	-6802
コンセプト	-6803
▁13	-6804
2022	-6805
▁四	-6806
るもの	-6807
師の	-6808
めたが	-6809
暴力	-6810
会で	-6811
踏み	-6812
静岡県	-6813
ヌス	-6814
あなたは	-6815
(7	-6816
配列	-6817
メート	-6818
ことになった	-6819
直し	-6820
ばれる	-6821
労働者	-6822
』)	-6823
あんな	-6824
どろ	-6825
世紀に	-6826
学者の	-6827
おく	-6828
なんか	-6829
エレベーター	-6830
が発表された	-6831
末期	-6832
答え	-6833
的にも	-6834
「」	-6835
しげ	-6836
併設	-6837
北東	-6838
の光	-6839
車両は	-6840
揚げ	-6841
。2007	-6842
箇所	-6843
マネー	-6844
残った	-6845
タクシー	-6846
夫は	-6847
方程	-6848
完全な	-6849
qu	-6850
合った	-6851
グループの	-6852
間隔	-6853
を始めた	-6854
センチ	-6855
連勝	-6856
をあげ	-6857
1988	-6858
可能性が	-6859
に復帰	-6860
全面	-6861
養成	-6862
ミッド	-6863
装飾	-6864
わかる	-6865
広場	-6866
ぼう	-6867
浅草	-6868
向けに	-6869
遺伝子	-6870
ともいう	-6871
ok	-6872
を押	-6873
進歩	-6874
(12	-6875
余儀	-6876
歌舞	-6877
メタ	-6878
冷房	-6879
怪我	-6880
弁護士	-6881
逆転	-6882
に関連	-6883
路線の	-6884
スピード	-6885
をかけ	-6886
予測	-6887
年の第	-6888
ポケット	-6889
したことを	-6890
継ぎ	-6891
によつて	-6892
。2010	-6893
りする	-6894
圧縮	-6895
▁mm	-6896
にこ	-6897
一致	-6898
大手	-6899
評判	-6900
のみである	-6901
似た	-6902
船舶	-6903
伝統的な	-6904
li	-6905
音の	-6906
正しい	-6907
出している	-6908
何処	-6909
きっと	-6910
ウルトラマン	-6911
意思	-6912
枚の	-6913
コレク	-6914
亡命	-6915
マツ	-6916
全員	-6917
ができる	-6918
細川	-6919
自主	-6920
見れば	-6921
チベット	-6922
死刑	-6923
科の	-6924
甲板	-6925
巨大	-6926
PG	-6927
夜は	-6928
なるほど	-6929
を示した	-6930
を持たない	-6931
信濃	-6932
福岡県	-6933
化合	-6934
戦う	-6935
シーズンは	-6936
全域	-6937
▁e	-6938
結論	-6939
闘争	-6940
騒動	-6941
才能	-6942
総督	-6943
住居	-6944
能力を	-6945
配慮	-6946
と見な	-6947
ネシア	-6948
気持ち	-6949
けど	-6950
モル	-6951
修理	-6952
協議	-6953
沿革	-6954
ゆき	-6955
▁リ	-6956
十三	-6957
一種の	-6958
大変	-6959
緩和	-6960
の原因	-6961
MO	-6962
ぜん	-6963
中から	-6964
年までは	-6965
アニメーション	-6966
メモリ	-6967
宮殿	-6968
会は	-6969
大学で	-6970
飲み	-6971
ケージ	-6972
日放送	-6973
時台	-6974
あいだ	-6975
厚生	-6976
看板	-6977
人々の	-6978
スカイ	-6979
つなが	-6980
王は	-6981
美濃	-6982
チック	-6983
、1999	-6984
現場	-6985
の上で	-6986
古墳	-6987
振動	-6988
、2021	-6989
以上に	-6990
DD	-6991
色は	-6992
好きな	-6993
ライオン	-6994
項目	-6995
局は	-6996
電圧	-6997
弱い	-6998
わら	-6999
複雑な	-7000
DNA	-7001
を主張	-7002
混合	-7003
市内の	-7004
関係の	-7005
120	-7006
及ぼ	-7007
モデ	-7008
up	-7009
▁+	-7010
脱退	-7011
メッセージ	-7012
▁and	-7013
ラは	-7014
身に	-7015
バイト	-7016
フィリピン	-7017
グロー	-7018
電池	-7019
リーグの	-7020
ねばならぬ	-7021
を遂	-7022
楽団	-7023
端の	-7024
編纂	-7025
言ふ	-7026
部で	-7027
述べた	-7028
甲子	-7029
していたため	-7030
運命	-7031
遠い	-7032
動員	-7033
に登場	-7034
に与	-7035
横断	-7036
上がった	-7037
人口の	-7038
番組は	-7039
最終的には	-7040
CS	-7041
横綱	-7042
厳密	-7043
度を	-7044
エンディング	-7045
されることが	-7046
中を	-7047
をベース	-7048
顧問	-7049
を利用して	-7050
まわ	-7051
曲は	-7052
軍隊	-7053
季節	-7054
高級	-7055
宇都	-7056
▁ス	-7057
そろ	-7058
えもん	-7059
台車	-7060
懸念	-7061
。2008	-7062
省の	-7063
のでしょう	-7064
夫人	-7065
キャッチ	-7066
名の由来	-7067
サム	-7068
者から	-7069
的である	-7070
ヒロ	-7071
が広が	-7072
南東	-7073
OW	-7074
二三	-7075
バーン	-7076
地名	-7077
歴任	-7078
権は	-7079
間には	-7080
と同様の	-7081
▁w	-7082
は見	-7083
と思い	-7084
進学	-7085
中山	-7086
語では	-7087
重な	-7088
宗の	-7089
純粋	-7090
進化	-7091
アは	-7092
食べる	-7093
が中心	-7094
数十	-7095
はな	-7096
当た	-7097
キャスト	-7098
レーベル	-7099
低迷	-7100
に移転	-7101
が下	-7102
エント	-7103
付属	-7104
道徳	-7105
北京	-7106
フット	-7107
時間を	-7108
だし	-7109
バラン	-7110
キロメートル	-7111
の東	-7112
工学	-7113
いよいよ	-7114
木村	-7115
ウェル	-7116
は小	-7117
を呼	-7118
近江	-7119
ステップ	-7120
合理	-7121
ソニー	-7122
市と	-7123
余儀なく	-7124
を掲	-7125
述べている	-7126
石を	-7127
をとり	-7128
大賞	-7129
等で	-7130
▁後	-7131
感謝	-7132
動力	-7133
次々と	-7134
コンクリート	-7135
の大半	-7136
ジュー	-7137
ナルド	-7138
のぼ	-7139
多くが	-7140
っています	-7141
こっち	-7142
国防	-7143
少将	-7144
衛生	-7145
話の	-7146
深刻	-7147
社会的	-7148
にあたり	-7149
ベート	-7150
工作	-7151
審判	-7152
やった	-7153
座の	-7154
間が	-7155
合戦	-7156
心は	-7157
やかに	-7158
容易に	-7159
第一次	-7160
タンク	-7161
教会の	-7162
私立	-7163
竣工	-7164
佐々	-7165
派は	-7166
信長	-7167
いっ	-7168
年間に	-7169
払い	-7170
語源	-7171
クイズ	-7172
を許	-7173
ガソ	-7174
回収	-7175
受けた	-7176
タリ	-7177
女性の	-7178
の要	-7179
:30	-7180
を務めていた	-7181
hi	-7182
募集	-7183
月刊	-7184
▁1997	-7185
力士	-7186
に次ぐ	-7187
を使用した	-7188
上演	-7189
だした	-7190
ベルの	-7191
死に	-7192
脂肪	-7193
くん	-7194
テッド	-7195
する必要	-7196
レーダー	-7197
する必要がある	-7198
説得	-7199
▁だが	-7200
ダンス	-7201
兄の	-7202
入力	-7203
栃木	-7204
セミ	-7205
の日本	-7206
と思うと	-7207
ひら	-7208
提唱	-7209
町に	-7210
、1960	-7211
器の	-7212
するに	-7213
直後の	-7214
入場	-7215
スタンド	-7216
スコットランド	-7217
ジェイ	-7218
在学	-7219
活発	-7220
社員	-7221
1987	-7222
として扱	-7223
エンター	-7224
古の	-7225
聖堂	-7226
マイル	-7227
早稲田	-7228
エンジンの	-7229
になりました	-7230
メダル	-7231
々が	-7232
暫定	-7233
移民	-7234
語が	-7235
高原	-7236
タンパク質	-7237
MP	-7238
働く	-7239
わかり	-7240
携帯電話	-7241
ポジション	-7242
側には	-7243
キャンプ	-7244
プロイセン	-7245
らして	-7246
化が進	-7247
国を	-7248
駅と	-7249
官僚	-7250
グレード	-7251
正規	-7252
急速に	-7253
ユダヤ人	-7254
▁1996	-7255
などにより	-7256
トウ	-7257
選手の	-7258
モスクワ	-7259
(10	-7260
務めた	-7261
当初から	-7262
を中心とする	-7263
れず	-7264
ガリ	-7265
成田	-7266
アイヌ	-7267
が必要である	-7268
と指摘	-7269
伯爵	-7270
続編	-7271
部分を	-7272
ネオ	-7273
加えて	-7274
在位	-7275
通貨	-7276
DS	-7277
1986	-7278
に伝	-7279
広域	-7280
育て	-7281
損傷	-7282
面は	-7283
オーケ	-7284
有料	-7285
ant	-7286
)(	-7287
こゝ	-7288
百貨	-7289
附属	-7290
講師	-7291
ないか	-7292
帰り	-7293
歌詞	-7294
順に	-7295
みは	-7296
▁鉄道	-7297
特許	-7298
エク	-7299
手は	-7300
反映	-7301
新聞社	-7302
を担当した	-7303
車種	-7304
であるから	-7305
国民の	-7306
ようとした	-7307
を待	-7308
だったため	-7309
ツー	-7310
浮か	-7311
この時期	-7312
作った	-7313
レム	-7314
原子力	-7315
といわれている	-7316
任命	-7317
層の	-7318
悪化	-7319
▁1995	-7320
但し	-7321
法令	-7322
と異なり	-7323
。2000	-7324
この場合	-7325
アルファ	-7326
しなければ	-7327
の間で	-7328
海底	-7329
数多くの	-7330
、1998	-7331
駅まで	-7332
死の	-7333
ゲームの	-7334
いな	-7335
木は	-7336
賞を受賞した	-7337
を擁	-7338
を採	-7339
わか	-7340
ell	-7341
漁業	-7342
ica	-7343
見えた	-7344
農民	-7345
改めて	-7346
珍しい	-7347
法で	-7348
サイン	-7349
に向かう	-7350
を建設	-7351
ビジョン	-7352
島式ホーム	-7353
頃には	-7354
正式な	-7355
無かった	-7356
天王	-7357
融合	-7358
切って	-7359
によく	-7360
入った	-7361
を引き起こ	-7362
するの	-7363
▁文	-7364
残る	-7365
1985	-7366
するのが	-7367
めの	-7368
ディス	-7369
ive	-7370
ゲート	-7371
長らく	-7372
時々	-7373
理由は	-7374
ファッション	-7375
主力	-7376
函館	-7377
公立	-7378
野菜	-7379
マックス	-7380
リク	-7381
磁気	-7382
不良	-7383
建立	-7384
WA	-7385
ゴルフ	-7386
ソンは	-7387
民営	-7388
ヴァル	-7389
有機	-7390
ガリア	-7391
▁これらの	-7392
ボックス	-7393
北米	-7394
博多	-7395
。。	-7396
故に	-7397
が分	-7398
音を	-7399
ファンタ	-7400
日間	-7401
昆虫	-7402
っこ	-7403
省略	-7404
ほかの	-7405
として知られる	-7406
地区の	-7407
強力な	-7408
ジャンル	-7409
を狙	-7410
琉球	-7411
しかない	-7412
渡り	-7413
らした	-7414
odice	-7415
終結	-7416
一族	-7417
名詞	-7418
元々	-7419
書店	-7420
本名	-7421
宇都宮	-7422
室に	-7423
書記	-7424
びた	-7425
まっ	-7426
博士は	-7427
例は	-7428
スクール	-7429
地理	-7430
実装	-7431
車で	-7432
ウロ	-7433
はいずれ	-7434
ことはない	-7435
することもある	-7436
▁第二次世界大戦	-7437
将校	-7438
捕虜	-7439
▁14	-7440
んだよ	-7441
を実現	-7442
ソンの	-7443
一日	-7444
触れ	-7445
公式サイト	-7446
車内	-7447
られたが	-7448
を加えた	-7449
細菌	-7450
を持た	-7451
キャラ	-7452
中では	-7453
独特の	-7454
▁一般	-7455
ペー	-7456
-10	-7457
ロサン	-7458
ものだった	-7459
ごとの	-7460
覚え	-7461
▁世界	-7462
アルコール	-7463
調理	-7464
られていたが	-7465
線の駅である	-7466
わたって	-7467
一旦	-7468
ハワイ	-7469
動物の	-7470
代藩主	-7471
アナログ	-7472
ナメント	-7473
ディズ	-7474
会が	-7475
生息	-7476
われていた	-7477
の頭	-7478
切った	-7479
▁コ	-7480
以下のような	-7481
不思議な	-7482
根本	-7483
。2004	-7484
品種	-7485
行つた	-7486
うん	-7487
リヒ	-7488
者には	-7489
バスが	-7490
製造された	-7491
簡単	-7492
太平洋戦争	-7493
知らず	-7494
事実上の	-7495
ドラえもん	-7496
陥落	-7497
牽引	-7498
。2009	-7499
度々	-7500
駅が	-7501
水は	-7502
過去に	-7503
げん	-7504
順次	-7505
だけに	-7506
さわ	-7507
中将	-7508
なんです	-7509
▁五	-7510
何を	-7511
立体	-7512
ストライ	-7513
気動	-7514
看護	-7515
今まで	-7516
発見された	-7517
主の	-7518
挿入	-7519
警視	-7520
典型	-7521
称号	-7522
キャンパス	-7523
を率	-7524
最新	-7525
が相	-7526
ドライブ	-7527
人から	-7528
とほぼ	-7529
として利用	-7530
メートルの	-7531
安心	-7532
野村	-7533
そこには	-7534
たん	-7535
二郎	-7536
彫刻	-7537
ールが	-7538
とすると	-7539
ect	-7540
人間が	-7541
すことが	-7542
表情	-7543
を名乗	-7544
生活の	-7545
▁それから	-7546
軽量	-7547
ささ	-7548
トーク	-7549
ソビエト連邦	-7550
DA	-7551
滋賀	-7552
にわたって	-7553
りした	-7554
ものか	-7555
に成功した	-7556
ゾン	-7557
ワル	-7558
終盤	-7559
甲子園	-7560
を取る	-7561
翌日	-7562
帰って	-7563
基本的な	-7564
取る	-7565
ラーの	-7566
秋の	-7567
めると	-7568
とよ	-7569
位置づけ	-7570
交易	-7571
役で	-7572
魚雷	-7573
を対象	-7574
頃は	-7575
郡の	-7576
政府が	-7577
面白い	-7578
あくまで	-7579
以後は	-7580
自体が	-7581
プレミア	-7582
会計	-7583
▁de	-7584
▁プロ	-7585
直線	-7586
際の	-7587
イタリアの	-7588
併用	-7589
本当に	-7590
(4	-7591
コンパ	-7592
へた	-7593
が取り	-7594
キット	-7595
メトロ	-7596
ライフ	-7597
ゴム	-7598
刺激	-7599
式は	-7600
王国の	-7601
を定	-7602
軍と	-7603
部族	-7604
もこの	-7605
を挙げた	-7606
ゴールデン	-7607
レンズ	-7608
となるが	-7609
カテ	-7610
事項	-7611
父が	-7612
▁経済	-7613
NP	-7614
殊に	-7615
ショップ	-7616
であることから	-7617
女房	-7618
施工	-7619
企業の	-7620
もあったが	-7621
重い	-7622
を採用した	-7623
出発	-7624
町は	-7625
統制	-7626
市出身	-7627
としており	-7628
の時代	-7629
生活を	-7630
ヤル	-7631
プラット	-7632
Hz	-7633
関与	-7634
たしか	-7635
会談	-7636
苦し	-7637
開放	-7638
all	-7639
世紀後半	-7640
大佐	-7641
試合で	-7642
頃の	-7643
従って	-7644
▁190	-7645
スロー	-7646
広げ	-7647
落語	-7648
バーグ	-7649
フィア	-7650
敵の	-7651
かしい	-7652
シス	-7653
中期	-7654
末の	-7655
窓口	-7656
だんだん	-7657
ばら	-7658
マルク	-7659
ha	-7660
連覇	-7661
が決定	-7662
、1997	-7663
ボス	-7664
の後継	-7665
あります	-7666
うて	-7667
それほど	-7668
うまく	-7669
へ向かう	-7670
が使用	-7671
1/	-7672
IM	-7673
ge	-7674
ツの	-7675
賛成	-7676
ort	-7677
協議会	-7678
「(	-7679
科大学	-7680
繊維	-7681
解除	-7682
しようと	-7683
有利	-7684
を重視	-7685
折り返	-7686
クハ	-7687
合唱	-7688
京阪	-7689
大会で	-7690
東武	-7691
歩行	-7692
させている	-7693
は第	-7694
コム	-7695
を失った	-7696
丈夫	-7697
In	-7698
直に	-7699
の変化	-7700
に際して	-7701
の一環として	-7702
永久	-7703
こんで	-7704
する形で	-7705
が追加	-7706
」・「	-7707
決議	-7708
認可	-7709
が続	-7710
敷設	-7711
航海	-7712
するには	-7713
どん	-7714
矛盾	-7715
を継承	-7716
市街地	-7717
元は	-7718
後ろ	-7719
河原	-7720
が発生した	-7721
山が	-7722
都心	-7723
電化	-7724
ロシアの	-7725
年以降は	-7726
収集	-7727
▁すると	-7728
が変	-7729
カス	-7730
ずっと	-7731
3,	-7732
sp	-7733
タイヤ	-7734
に上	-7735
を食	-7736
エス	-7737
幹部	-7738
橋の	-7739
ロッテ	-7740
EL	-7741
地獄	-7742
迎え	-7743
年までに	-7744
ロウ	-7745
日光	-7746
とは別に	-7747
0.	-7748
リンの	-7749
ースの	-7750
を挟	-7751
IA	-7752
・2	-7753
年ぶりの	-7754
オプ	-7755
が採用	-7756
人口は	-7757
と述べた	-7758
新田	-7759
▁現在の	-7760
路線は	-7761
が出た	-7762
を制	-7763
ボリ	-7764
夜間	-7765
郊外	-7766
所属の	-7767
現れた	-7768
かかった	-7769
島津	-7770
するとともに	-7771
債務	-7772
ライバル	-7773
へも	-7774
グランド	-7775
動く	-7776
られず	-7777
少しも	-7778
観光客	-7779
ラッシュ	-7780
ie	-7781
結晶	-7782
表の	-7783
水準	-7784
▁八	-7785
介入	-7786
苦労	-7787
地元の	-7788
かける	-7789
思わず	-7790
ドリヒ	-7791
▁放送	-7792
にならない	-7793
に従事	-7794
にちな	-7795
講演	-7796
警官	-7797
透明	-7798
からね	-7799
皮膚	-7800
に含まれる	-7801
以前から	-7802
所得	-7803
隊が	-7804
花の	-7805
ポーター	-7806
をとる	-7807
▁テレビ	-7808
-6	-7809
若手	-7810
ity	-7811
ふり	-7812
どこか	-7813
突入	-7814
顕著	-7815
ウスの	-7816
なくなって	-7817
ちが	-7818
ボイ	-7819
みる	-7820
ヤマト	-7821
世話	-7822
高松	-7823
RA	-7824
参入	-7825
高知	-7826
の高い	-7827
子で	-7828
に至るまで	-7829
長距離	-7830
ラノ	-7831
;/	-7832
金は	-7833
なにか	-7834
▁*	-7835
が多数	-7836
大衆	-7837
ポンド	-7838
OL	-7839
を支配	-7840
何度も	-7841
情報を	-7842
="	-7843
二度	-7844
とうとう	-7845
戦術	-7846
きり	-7847
エンド	-7848
であること	-7849
水道	-7850
実況	-7851
ナミ	-7852
もはや	-7853
▁中国	-7854
ホームは	-7855
しゅう	-7856
チャード	-7857
恐らく	-7858
色を	-7859
デンマーク	-7860
女王	-7861
機動戦士ガンダム	-7862
風呂	-7863
を生み	-7864
残っている	-7865
レジ	-7866
問題は	-7867
広島県	-7868
月からは	-7869
▁1994	-7870
で出	-7871
小学	-7872
を最後に	-7873
えられている	-7874
なの	-7875
重複	-7876
トレード	-7877
最優秀	-7878
されるなど	-7879
を喫	-7880
lay	-7881
勢調査	-7882
ドラフト	-7883
フリ	-7884
摂取	-7885
軍団	-7886
しようとした	-7887
土佐	-7888
やっぱり	-7889
しと	-7890
▁そこで	-7891
中日	-7892
夫が	-7893
ラッ	-7894
熱帯	-7895
駅間の	-7896
名鉄	-7897
旦那	-7898
と言って	-7899
参加した	-7900
は三	-7901
折り	-7902
int	-7903
ran	-7904
乗降人員	-7905
長男	-7906
存在し	-7907
との間で	-7908
エディ	-7909
すり	-7910
月現在	-7911
東京大学	-7912
みつ	-7913
ブック	-7914
に見られる	-7915
シュタイン	-7916
同月	-7917
雰囲	-7918
タイプの	-7919
たゞ	-7920
規模の	-7921
主として	-7922
パッケージ	-7923
じゃあ	-7924
愛媛	-7925
音楽の	-7926
をつけた	-7927
ss	-7928
を唱	-7929
役所	-7930
諏訪	-7931
タッグ	-7932
みず	-7933
した上で	-7934
オイ	-7935
無限	-7936
版は	-7937
と言える	-7938
チャート	-7939
を模	-7940
ることに	-7941
ラント	-7942
退団	-7943
周年記念	-7944
飼育	-7945
おや	-7946
ナーの	-7947
サイクル	-7948
モア	-7949
けい	-7950
ふく	-7951
スイス	-7952
んでおり	-7953
ペット	-7954
ガソリン	-7955
暗号	-7956
れており	-7957
で放送された	-7958
來た	-7959
性と	-7960
を決定	-7961
バス停	-7962
制度の	-7963
オーケストラ	-7964
io	-7965
両が	-7966
内での	-7967
伊達	-7968
停車する	-7969
東宝	-7970
漫画家	-7971
を設	-7972
1984	-7973
"(	-7974
は今	-7975
ができ	-7976
バトル	-7977
券売機	-7978
を感じ	-7979
物である	-7980
日をもって	-7981
正面	-7982
冬季	-7983
プール	-7984
ユーロ	-7985
コミックス	-7986
ものではない	-7987
反射	-7988
区間は	-7989
私も	-7990
単行本	-7991
ヘー	-7992
▁イ	-7993
吉野	-7994
と思います	-7995
菓子	-7996
置き換	-7997
これによって	-7998
にかけての	-7999
に改称	-8000
きながら	-8001
ときには	-8002
だね	-8003
移住	-8004
同年の	-8005
後述の	-8006
リの	-8007
市営	-8008
日野	-8009
薬品	-8010
を利用した	-8011
ピエ	-8012
せられ	-8013
ノール	-8014
前には	-8015
マルクス	-8016
太田	-8017
▁神	-8018
日で	-8019
▁ある	-8020
なしに	-8021
も参照	-8022
死んで	-8023
共和国の	-8024
と題	-8025
妻は	-8026
東南	-8027
外観	-8028
歌舞伎	-8029
ものとして	-8030
を分	-8031
はないが	-8032
起こった	-8033
ジュニア	-8034
開催される	-8035
▁国際	-8036
局長	-8037
消え	-8038
ゼルス	-8039
を含めて	-8040
が設置された	-8041
空軍	-8042
移植	-8043
去った	-8044
として活動	-8045
で敗	-8046
金が	-8047
に見える	-8048
地域は	-8049
万ドル	-8050
自由に	-8051
保証	-8052
日中	-8053
なのか	-8054
年までの	-8055
コフ	-8056
モール	-8057
▁:	-8058
ビーム	-8059
モチーフ	-8060
を誇	-8061
選挙区	-8062
一軍	-8063
発の	-8064
SE	-8065
▁ハ	-8066
クリア	-8067
RC	-8068
MC	-8069
抗争	-8070
文芸	-8071
を記念	-8072
はじめて	-8073
にかか	-8074
子ども	-8075
施設の	-8076
東京の	-8077
しやすい	-8078
こく	-8079
場が	-8080
はある	-8081
はまだ	-8082
を変更	-8083
じん	-8084
ジム	-8085
足の	-8086
京王	-8087
コの	-8088
観点から	-8089
近年では	-8090
突破	-8091
ライセンス	-8092
基本的には	-8093
号線	-8094
認める	-8095
日のダイヤ改正	-8096
現状	-8097
半七	-8098
橋本	-8099
酵素	-8100
と判断	-8101
ほしい	-8102
そうです	-8103
したら	-8104
可愛	-8105
治安	-8106
法案	-8107
250	-8108
一緒に	-8109
天文学	-8110
cc	-8111
平方	-8112
ゾーン	-8113
日本代表	-8114
取扱	-8115
司教	-8116
産の	-8117
特徴である	-8118
冷却	-8119
グラフ	-8120
既存の	-8121
大尉	-8122
方へ	-8123
内蔵	-8124
々しい	-8125
ブレイ	-8126
併し	-8127
寛永	-8128
十分な	-8129
色で	-8130
ッズ	-8131
スパイ	-8132
語っている	-8133
気筒	-8134
ゴジラ	-8135
ヴィン	-8136
に準	-8137
プー	-8138
山梨	-8139
の西	-8140
海に	-8141
近衛	-8142
チップ	-8143
プター	-8144
岡田	-8145
横須賀	-8146
出入口	-8147
百貨店	-8148
のぞ	-8149
何らかの	-8150
はれ	-8151
水に	-8152
すべく	-8153
のでは	-8154
らせた	-8155
テイン	-8156
種別	-8157
マレー	-8158
知っている	-8159
は中	-8160
▁他	-8161
掛けて	-8162
知らぬ	-8163
を撃	-8164
ストの	-8165
地中	-8166
シウム	-8167
詰め	-8168
はア	-8169
色に	-8170
が形成	-8171
なかに	-8172
が立	-8173
フレー	-8174
とにかく	-8175
示した	-8176
コンスタン	-8177
歳以上	-8178
コウ	-8179
婦人	-8180
ニズム	-8181
▁特徴	-8182
に行く	-8183
ne	-8184
明るい	-8185
むら	-8186
スと	-8187
周波数	-8188
は非常に	-8189
ショック	-8190
、1996	-8191
並べ	-8192
賠償	-8193
ぶら	-8194
叔父	-8195
▁出演	-8196
を必要	-8197
があるため	-8198
▁l	-8199
港湾	-8200
ヘルム	-8201
民主主義	-8202
まっていた	-8203
家で	-8204
日本は	-8205
コントロール	-8206
宮城県	-8207
を愛	-8208
ゲイ	-8209
を迎え	-8210
太郎は	-8211
のであるが	-8212
をリリース	-8213
トライ	-8214
つつある	-8215
建国	-8216
はいずれも	-8217
▁白	-8218
メモ	-8219
待合	-8220
を成	-8221
併合	-8222
力に	-8223
が設定	-8224
用として	-8225
動詞	-8226
煙草	-8227
軍人	-8228
区間の	-8229
がなかった	-8230
TS	-8231
丁度	-8232
殺された	-8233
烈な	-8234
スペン	-8235
最高の	-8236
娘の	-8237
金額	-8238
とはいえ	-8239
を作成	-8240
スマート	-8241
敷地	-8242
を通る	-8243
セロ	-8244
著名な	-8245
院議員	-8246
を好	-8247
誤解	-8248
れません	-8249
▁1992	-8250
わたし	-8251
三井	-8252
がる	-8253
と申	-8254
した際に	-8255
▁単	-8256
を高	-8257
同社の	-8258
の影響で	-8259
コーヒー	-8260
していなかった	-8261
ud	-8262
ぼん	-8263
帰還	-8264
隠居	-8265
同士の	-8266
北の	-8267
リウム	-8268
していて	-8269
、1995	-8270
制約	-8271
粒子	-8272
end	-8273
(8	-8274
動か	-8275
を描く	-8276
を舞台	-8277
本格的な	-8278
さういふ	-8279
の内容	-8280
ヨーロッパの	-8281
得た	-8282
第四	-8283
補給	-8284
シェル	-8285
仕方	-8286
たびたび	-8287
ダービー	-8288
をさ	-8289
石炭	-8290
葉の	-8291
されることになった	-8292
マンは	-8293
教員	-8294
毎に	-8295
▁から	-8296
ジャズ	-8297
▁教育	-8298
一般の	-8299
普通の	-8300
増大	-8301
座敷	-8302
。16	-8303
工事が	-8304
をこ	-8305
ローマ帝国	-8306
競輪	-8307
なくても	-8308
車線	-8309
に指定されている	-8310
すじ	-8311
に於て	-8312
ウィル	-8313
部分の	-8314
しくない	-8315
",	-8316
箱根	-8317
雄は	-8318
南部の	-8319
持って	-8320
新潟県	-8321
初演	-8322
区に	-8323
山岳	-8324
概ね	-8325
フィンランド	-8326
承知	-8327
マガジン	-8328
を求め	-8329
の他	-8330
沿線	-8331
田村	-8332
けている	-8333
の再	-8334
、[[	-8335
ックは	-8336
ミュン	-8337
があります	-8338
ったという	-8339
実在	-8340
競合	-8341
かという	-8342
アラビア	-8343
。2011	-8344
されることもある	-8345
市が	-8346
音源	-8347
出で	-8348
対決	-8349
一貫	-8350
スコミ	-8351
生まれる	-8352
次のような	-8353
汚染	-8354
放送されていた	-8355
死後	-8356
個人の	-8357
投稿	-8358
ストップ	-8359
プログラ	-8360
ゥー	-8361
に移動	-8362
アマチュア	-8363
フランシスコ	-8364
詩人	-8365
▁そう	-8366
けり	-8367
朝日放送	-8368
回数	-8369
バルト	-8370
したことから	-8371
、」	-8372
地点	-8373
田舎	-8374
やっと	-8375
シナリオ	-8376
▁行政	-8377
を試み	-8378
▁以下の	-8379
の一覧	-8380
▁昭和	-8381
▁ゲーム	-8382
松山	-8383
騒ぎ	-8384
を脱	-8385
次のように	-8386
our	-8387
つに	-8388
まゝ	-8389
を称	-8390
遂に	-8391
じっと	-8392
OP	-8393
船が	-8394
以降に	-8395
しゅ	-8396
斎藤	-8397
の数	-8398
HS	-8399
単なる	-8400
でありながら	-8401
ギン	-8402
ヨン	-8403
車庫	-8404
を逃	-8405
せない	-8406
の放送	-8407
ナルの	-8408
予防	-8409
の位置	-8410
ライター	-8411
ほとんどが	-8412
スプ	-8413
ステン	-8414
俺は	-8415
利根	-8416
近年は	-8417
DC	-8418
▁ミ	-8419
往来	-8420
交響曲	-8421
息子の	-8422
侵略	-8423
瑠璃	-8424
要塞	-8425
ボート	-8426
地図	-8427
の戦いで	-8428
トーナメント	-8429
勾配	-8430
行し	-8431
にいる	-8432
を設け	-8433
方向に	-8434
を残した	-8435
近くの	-8436
定められた	-8437
フリードリヒ	-8438
ヌー	-8439
選出	-8440
阻止	-8441
クルー	-8442
することがある	-8443
の字	-8444
を使い	-8445
周期	-8446
団地	-8447
曹操	-8448
なう	-8449
従業	-8450
連隊	-8451
ウイ	-8452
が無い	-8453
飲食	-8454
眼鏡	-8455
退職	-8456
変更された	-8457
へ行く	-8458
かえって	-8459
ホールディング	-8460
が高い	-8461
クーデ	-8462
幽霊	-8463
Cat	-8464
入って	-8465
醍醐	-8466
人々は	-8467
、1994	-8468
するような	-8469
大半	-8470
市販	-8471
開局	-8472
起きた	-8473
自動車の	-8474
不正	-8475
独裁	-8476
から外	-8477
IL	-8478
宿泊	-8479
尾張	-8480
仮名	-8481
電流	-8482
願い	-8483
翌年の	-8484
ベルギー	-8485
を望	-8486
専門学校	-8487
ゆえに	-8488
光が	-8489
降板	-8490
三河	-8491
1982	-8492
入院	-8493
110	-8494
それ以外の	-8495
ik	-8496
のみを	-8497
活動の	-8498
▁2023	-8499
観念	-8500
なす	-8501
老朽	-8502
影響を	-8503
。2012	-8504
されておらず	-8505
専攻	-8506
▁パ	-8507
でお	-8508
ナウ	-8509
変動	-8510
年後	-8511
教養	-8512
発展した	-8513
月曜	-8514
流れる	-8515
ピュ	-8516
注釈	-8517
意味で	-8518
運営する	-8519
火星	-8520
玩具	-8521
不可能	-8522
源氏	-8523
観音	-8524
を要求	-8525
チョウ	-8526
出演した	-8527
チア	-8528
短編	-8529
ポップ	-8530
原料	-8531
それら	-8532
タの	-8533
伏見	-8534
』(19	-8535
だん	-8536
ビール	-8537
▁これは	-8538
総理大臣	-8539
下を	-8540
なさ	-8541
商売	-8542
パーセント	-8543
大会の	-8544
彼ら	-8545
GT	-8546
組の	-8547
シカゴ	-8548
ブリッジ	-8549
にい	-8550
を交	-8551
高齢	-8552
日米	-8553
を確保	-8554
▁1989	-8555
つま	-8556
ていました	-8557
排気	-8558
療法	-8559
の末	-8560
有限	-8561
ast	-8562
国連	-8563
村上	-8564
株主	-8565
ビュ	-8566
出る	-8567
端末	-8568
ate	-8569
を書き	-8570
葬儀	-8571
取り上げ	-8572
成立した	-8573
近づ	-8574
ディレク	-8575
系譜	-8576
在住	-8577
(6	-8578
偵察	-8579
ff	-8580
の重	-8581
選抜	-8582
部と	-8583
レイン	-8584
部には	-8585
わからない	-8586
現れる	-8587
ーンズ	-8588
のものは	-8589
▁1991	-8590
最小	-8591
さすが	-8592
ドルフ	-8593
役に	-8594
決め	-8595
セレ	-8596
在来	-8597
自体	-8598
の中を	-8599
フィリップ	-8600
は新	-8601
概要	-8602
職務	-8603
具体的な	-8604
国土交通	-8605
兵隊	-8606
努力	-8607
レンス	-8608
を組み	-8609
レストラン	-8610
入る	-8611
気で	-8612
始めて	-8613
経済学	-8614
エドワード	-8615
▁1960	-8616
▁1993	-8617
質量	-8618
▁○	-8619
させること	-8620
メイク	-8621
日の対	-8622
にしている	-8623
数々の	-8624
ることができ	-8625
選手が	-8626
世を	-8627
運河	-8628
ベクトル	-8629
回答	-8630
が起き	-8631
ノルウェー	-8632
の作品	-8633
の人物	-8634
年ごろ	-8635
試合の	-8636
地域では	-8637
が生まれた	-8638
一連の	-8639
アイテム	-8640
ev	-8641
滅ぼ	-8642
瞬間	-8643
鳥の	-8644
力学	-8645
本人	-8646
ちの	-8647
云い	-8648
微笑	-8649
系は	-8650
細い	-8651
行事	-8652
連合国	-8653
消滅した	-8654
入手	-8655
暮ら	-8656
▁当駅	-8657
ングル	-8658
保管	-8659
併せて	-8660
シーズンの	-8661
ことと	-8662
と呼称	-8663
を浴び	-8664
ロイド	-8665
番組を	-8666
あなたの	-8667
シンボル	-8668
したところ	-8669
キリ	-8670
尽く	-8671
鎮圧	-8672
忘れて	-8673
テレビの	-8674
多様な	-8675
ロサンゼルス	-8676
▁バス路線	-8677
。1990	-8678
として使用	-8679
水平	-8680
社会の	-8681
部から	-8682
あたりの	-8683
ラマ	-8684
丘陵	-8685
廃止され	-8686
がそれぞれ	-8687
付いた	-8688
につれて	-8689
名に	-8690
いきなり	-8691
EX	-8692
アルゼン	-8693
ていなかった	-8694
デザイ	-8695
ight	-8696
講義	-8697
エリザ	-8698
はあ	-8699
全般	-8700
が大きい	-8701
本格的に	-8702
きわ	-8703
電磁	-8704
よって	-8705
カーブ	-8706
上京	-8707
といえば	-8708
号が	-8709
関係者	-8710
マイケル	-8711
切りに	-8712
されたのは	-8713
ペイ	-8714
県内	-8715
くなって	-8716
英語の	-8717
ニョ	-8718
強調	-8719
所領	-8720
ナイター	-8721
マーケット	-8722
ひき	-8723
ソウル	-8724
ならびに	-8725
逃亡	-8726
ヘビー	-8727
百姓	-8728
ヤング	-8729
限りで	-8730
はじめた	-8731
スーツ	-8732
足り	-8733
せられる	-8734
高速バス	-8735
返還	-8736
朝は	-8737
▁映画	-8738
を果たし	-8739
上映	-8740
化粧	-8741
を抜	-8742
住む	-8743
曰く	-8744
稽古	-8745
が同	-8746
・3	-8747
歴史的	-8748
事業の	-8749
振り返	-8750
テーブル	-8751
プレート	-8752
▁シ	-8753
に追い	-8754
タッチ	-8755
プレーオフ	-8756
結果として	-8757
に送	-8758
ベラ	-8759
辞職	-8760
が日本	-8761
事から	-8762
ファイター	-8763
スン	-8764
言って	-8765
薄い	-8766
を経由して	-8767
歩く	-8768
クール	-8769
実業	-8770
小倉	-8771
順序	-8772
わせる	-8773
ジュール	-8774
うえで	-8775
の利用	-8776
永禄	-8777
エム	-8778
署名	-8779
▁主	-8780
文の	-8781
共産主義	-8782
-5	-8783
を防ぐ	-8784
卒業後	-8785
ドイツ語	-8786
を搭載した	-8787
多用	-8788
CPU	-8789
が最も	-8790
所へ	-8791
情勢	-8792
絶滅	-8793
たれ	-8794
を継いだ	-8795
かげ	-8796
NS	-8797
対照	-8798
を開発	-8799
著しく	-8800
一定	-8801
私に	-8802
充実	-8803
類は	-8804
アレクサンド	-8805
だな	-8806
指す	-8807
日産	-8808
状に	-8809
酒を	-8810
メタル	-8811
1983	-8812
いいました	-8813
リチャード	-8814
準決勝	-8815
国勢調査	-8816
越し	-8817
を結び	-8818
ステル	-8819
市で	-8820
砲塔	-8821
知った	-8822
エレクト	-8823
することによって	-8824
きゅう	-8825
及ば	-8826
(197	-8827
僕が	-8828
明の	-8829
▁こう	-8830
各地に	-8831
番目に	-8832
egory	-8833
きっかけに	-8834
先輩	-8835
神聖	-8836
通し	-8837
、1993	-8838
お父	-8839
の方向	-8840
かったが	-8841
パフォー	-8842
物資	-8843
表彰	-8844
▁ところが	-8845
別れ	-8846
樹立	-8847
直径	-8848
配布	-8849
野は	-8850
を開始し	-8851
に似た	-8852
ひどく	-8853
奏曲	-8854
食料	-8855
▁かつて	-8856
に参加した	-8857
国で	-8858
春日	-8859
は以下の通りである	-8860
りながら	-8861
作家の	-8862
に出た	-8863
の前身	-8864
意志	-8865
▁k	-8866
ベッド	-8867
残りの	-8868
していると	-8869
修行	-8870
年春	-8871
トラブル	-8872
程の	-8873
町にある	-8874
ナは	-8875
好い	-8876
工夫	-8877
が主流	-8878
頻繁に	-8879
著作権	-8880
システムの	-8881
太刀	-8882
マスコミ	-8883
を構成する	-8884
することにより	-8885
儀式	-8886
がよく	-8887
ヴィー	-8888
えん	-8889
喜び	-8890
機能を	-8891
を歌	-8892
特撮	-8893
確率	-8894
講談	-8895
赤字	-8896
が作	-8897
大坂	-8898
管弦	-8899
麻呂	-8900
エクス	-8901
ルイス	-8902
きん	-8903
を執	-8904
ヴォル	-8905
に対しても	-8906
を救	-8907
そもそも	-8908
中断	-8909
平面	-8910
の目	-8911
ルネ	-8912
はまた	-8913
マスク	-8914
場合が多い	-8915
秩序	-8916
終わり	-8917
テネ	-8918
1950	-8919
盛岡	-8920
スロ	-8921
マジ	-8922
喧嘩	-8923
アブ	-8924
商標	-8925
来ると	-8926
を達成した	-8927
ジェームズ	-8928
争い	-8929
台頭	-8930
燃焼	-8931
削除	-8932
今日は	-8933
GI	-8934
同志	-8935
は主に	-8936
真の	-8937
初めての	-8938
室内	-8939
東の	-8940
チームが	-8941
わい	-8942
ソル	-8943
表す	-8944
▁その他の	-8945
安価	-8946
を攻撃	-8947
▁それは	-8948
RE	-8949
の話	-8950
牡馬	-8951
いません	-8952
する予定	-8953
喪失	-8954
ドラム	-8955
ルトン	-8956
加賀	-8957
を感	-8958
身長	-8959
着陸	-8960
最上	-8961
ヤクルト	-8962
特別な	-8963
スポット	-8964
傾斜	-8965
が多かった	-8966
IX	-8967
急激	-8968
祭り	-8969
んだから	-8970
割り当て	-8971
と呼ばれていた	-8972
記事を	-8973
、1992	-8974
▁出典	-8975
オンライン	-8976
不能	-8977
最後まで	-8978
の王	-8979
上海	-8980
ピスト	-8981
北九州	-8982
部屋の	-8983
WW	-8984
体で	-8985
バース	-8986
プロセッサ	-8987
そのとき	-8988
内陸	-8989
場所に	-8990
会館	-8991
をく	-8992
終戦	-8993
はっきり	-8994
締め	-8995
全国の	-8996
コレクション	-8997
ドルの	-8998
岸の	-8999
ノイ	-9000
要件	-9001
が確認	-9002
アート	-9003
幕府の	-9004
わたしの	-9005
うと	-9006
を切り	-9007
がつ	-9008
いても	-9009
認めた	-9010
陸奥	-9011
椅子	-9012
沖縄県	-9013
定理	-9014
商店街	-9015
記述する	-9016
テレビ番組	-9017
ヒーロー	-9018
アト	-9019
選定	-9020
ラウンド	-9021
ポロ	-9022
気圧	-9023
一本	-9024
版が	-9025
西の	-9026
マット	-9027
コラ	-9028
▁松	-9029
下ろ	-9030
住友	-9031
種は	-9032
ABC	-9033
マリオ	-9034
対称	-9035
オーディション	-9036
柔道	-9037
読者	-9038
が出る	-9039
▁一方で	-9040
現れ	-9041
貨幣	-9042
ps	-9043
まじ	-9044
のメンバー	-9045
パートナー	-9046
せぬ	-9047
法に	-9048
電機	-9049
タミン	-9050
捕ら	-9051
三人	-9052
ディズニー	-9053
大宮	-9054
意に	-9055
本編	-9056
にかけ	-9057
を紹介	-9058
ッタ	-9059
セブン	-9060
以下に	-9061
中華人民共和国	-9062
開拓	-9063
まると	-9064
▁市	-9065
を介	-9066
前期	-9067
叫び	-9068
鉄の	-9069
ill	-9070
んでい	-9071
エンジンは	-9072
何故	-9073
日市	-9074
▁など	-9075
が目	-9076
十八	-9077
大日本	-9078
ままで	-9079
。2003	-9080
けの	-9081
ようになって	-9082
の建設	-9083
コマンド	-9084
ライナー	-9085
Category	-9086
左翼	-9087
がいた	-9088
を取って	-9089
ぎり	-9090
ノス	-9091
徒歩	-9092
と同一	-9093
二次	-9094
国籍	-9095
干渉	-9096
ノース	-9097
論の	-9098
プロト	-9099
すみ	-9100
RNA	-9101
イェ	-9102
ラジ	-9103
はれる	-9104
ネルの	-9105
モーション	-9106
路線が	-9107
留学	-9108
オオ	-9109
夕方	-9110
立候補	-9111
フランス語	-9112
サハ	-9113
エルン	-9114
カフェ	-9115
を使用している	-9116
厳しく	-9117
イスラーム	-9118
グラス	-9119
ベンチ	-9120
二軍	-9121
十六	-9122
庭園	-9123
かなかった	-9124
▁戦	-9125
オールスター	-9126
貧困	-9127
っこう	-9128
▁番組	-9129
に到着	-9130
はこれを	-9131
を飾	-9132
チャールズ	-9133
何時	-9134
妨害	-9135
まわり	-9136
ポリス	-9137
のび	-9138
ないと	-9139
首都圏	-9140
ワンマン	-9141
っているが	-9142
Su	-9143
だの	-9144
下旬	-9145
分から	-9146
物理学	-9147
行われていた	-9148
井戸	-9149
水路	-9150
砲撃	-9151
自分を	-9152
運行されている	-9153
緊張	-9154
得点を	-9155
バレ	-9156
保健	-9157
みや	-9158
神奈川	-9159
お母	-9160
小野	-9161
所持	-9162
母音	-9163
公式戦	-9164
。"	-9165
けに	-9166
リャ	-9167
量子	-9168
立てた	-9169
計画は	-9170
▁石	-9171
気な	-9172
ストア	-9173
博士の	-9174
分を	-9175
高野	-9176
あっ	-9177
化は	-9178
▁あら	-9179
競馬場	-9180
楽し	-9181
田町	-9182
じられ	-9183
として活躍	-9184
FL	-9185
倫理	-9186
付近の	-9187
▁金	-9188
命中	-9189
の発生	-9190
まれていた	-9191
山崎	-9192
タワー	-9193
立派な	-9194
も出	-9195
共同で	-9196
原稿	-9197
きこ	-9198
と書	-9199
期間は	-9200
ゴールド	-9201
庁の	-9202
ヴェネ	-9203
の道	-9204
アダ	-9205
三浦	-9206
各地	-9207
引用	-9208
を継続	-9209
クーデター	-9210
▁木	-9211
モロ	-9212
庁舎	-9213
おまえ	-9214
アイス	-9215
終点	-9216
釣り	-9217
視聴率	-9218
真っ	-9219
▁沿革	-9220
というような	-9221
▁×	-9222
際は	-9223
仕組み	-9224
、1991	-9225
るか	-9226
発電所	-9227
した結果	-9228
記されている	-9229
研修	-9230
大規模	-9231
SD	-9232
。2014	-9233
埋葬	-9234
ことの	-9235
バレー	-9236
アメリカ軍	-9237
で開催された	-9238
も知	-9239
を起こす	-9240
がと	-9241
を再	-9242
したのが	-9243
テインメント	-9244
直ちに	-9245
らっしゃ	-9246
インディアン	-9247
延期	-9248
の生産	-9249
スズ	-9250
のでございます	-9251
日立	-9252
谷川	-9253
▁文化	-9254
日からは	-9255
?』	-9256
復元	-9257
演算	-9258
カウン	-9259
ショウ	-9260
月にかけて	-9261
勲章	-9262
生存	-9263
シンガ	-9264
方程式	-9265
享年	-9266
▁r	-9267
出来事	-9268
1981	-9269
混雑	-9270
は後	-9271
旅館	-9272
確実	-9273
売り上げ	-9274
楽天	-9275
ノート	-9276
空中	-9277
会社が	-9278
ネズ	-9279
有名である	-9280
に関係	-9281
1969	-9282
ベス	-9283
戦線	-9284
を余儀なく	-9285
御座	-9286
以下のように	-9287
世間	-9288
谷の	-9289
金庫	-9290
予約	-9291
或る	-9292
05	-9293
戦力	-9294
が強く	-9295
着いた	-9296
1,000	-9297
。2013	-9298
売上	-9299
ore	-9300
▁私	-9301
品質	-9302
留守	-9303
ないで	-9304
ットー	-9305
先生は	-9306
。2015	-9307
ということを	-9308
ミュージシャン	-9309
が出来た	-9310
くも	-9311
返し	-9312
に落ち	-9313
が発売された	-9314
さも	-9315
とは言	-9316
んでも	-9317
団体の	-9318
UEFA	-9319
の書	-9320
渋滞	-9321
配給	-9322
食堂	-9323
のではなく	-9324
▁→	-9325
中野	-9326
各国の	-9327
亡くなった	-9328
壊滅	-9329
影響を与えた	-9330
リト	-9331
確か	-9332
ところを	-9333
ue	-9334
数百	-9335
の代表	-9336
は全て	-9337
考へて	-9338
が発生し	-9339
▁平	-9340
かせた	-9341
ものが多い	-9342
冬の	-9343
クレー	-9344
川上	-9345
特集	-9346
部隊の	-9347
さの	-9348
出雲	-9349
姫路	-9350
教室	-9351
リリースされた	-9352
で第	-9353
(11	-9354
ドキュ	-9355
▁翌	-9356
と伝	-9357
、1989	-9358
っく	-9359
味方	-9360
水上	-9361
回目の	-9362
のものが	-9363
一寸	-9364
前年	-9365
チャイ	-9366
前後の	-9367
する方法	-9368
先行	-9369
性的	-9370
若し	-9371
鹿島	-9372
とりわけ	-9373
小路	-9374
を出し	-9375
車両が	-9376
当な	-9377
言を	-9378
日も	-9379
白河	-9380
が生じ	-9381
フェリー	-9382
平安時代	-9383
でん	-9384
様子を	-9385
その一方で	-9386
ドウ	-9387
ヨハ	-9388
補佐	-9389
サーク	-9390
▁人	-9391
を考慮	-9392
カレッジ	-9393
ロケ	-9394
供用	-9395
ペルシア	-9396
しておらず	-9397
きれ	-9398
シェア	-9399
ペーン	-9400
に集	-9401
青山	-9402
騎兵	-9403
地域で	-9404
つて居る	-9405
付けられている	-9406
形式の	-9407
ませぬ	-9408
政の	-9409
特攻	-9410
岐阜県	-9411
。2016	-9412
パフォーマン	-9413
▁大学	-9414
セラ	-9415
の長男	-9416
03	-9417
なじ	-9418
わす	-9419
浜松	-9420
バイス	-9421
を落	-9422
注目を	-9423
茨城県	-9424
紙の	-9425
覚悟	-9426
むね	-9427
業の	-9428
笠原	-9429
とは思	-9430
繁栄	-9431
親交	-9432
利用できる	-9433
セリ	-9434
打席	-9435
降格	-9436
というのが	-9437
把握	-9438
サーバ	-9439
実践	-9440
西暦	-9441
ったのは	-9442
ザク	-9443
新幹	-9444
あげて	-9445
ています	-9446
感染症	-9447
死亡した	-9448
インドネシア	-9449
CO	-9450
ルク	-9451
と言われ	-9452
ひとつの	-9453
吉の	-9454
小田原	-9455
衆議院議員総選挙	-9456
放棄	-9457
のですか	-9458
に携	-9459
修復	-9460
に立ち	-9461
早朝	-9462
だけではなく	-9463
住民の	-9464
を外	-9465
系列の	-9466
関係は	-9467
プロデュース	-9468
入社	-9469
退任	-9470
りして	-9471
を送り	-9472
ルーマニア	-9473
さて	-9474
ケード	-9475
万人の	-9476
ストリート	-9477
口径	-9478
越後	-9479
食い	-9480
に移り	-9481
(5	-9482
ヶ原	-9483
るのは	-9484
カート	-9485
学生の	-9486
▁太	-9487
地形	-9488
くして	-9489
大いに	-9490
経由で	-9491
続けている	-9492
(9	-9493
川市	-9494
熱心	-9495
歌の	-9496
なれば	-9497
接続する	-9498
放送開始	-9499
月は	-9500
デア	-9501
4,	-9502
こん	-9503
描いた	-9504
問題の	-9505
声は	-9506
これに対して	-9507
リエーション	-9508
が通	-9509
塗り	-9510
サント	-9511
ターボ	-9512
示唆	-9513
協同	-9514
存じ	-9515
官は	-9516
選考	-9517
なのだ	-9518
EE	-9519
を批判	-9520
ガード	-9521
を演じた	-9522
仮説	-9523
SL	-9524
長年	-9525
パネル	-9526
りん	-9527
の一員	-9528
チェーン	-9529
▁も	-9530
つかり	-9531
を自	-9532
覧会	-9533
という名称	-9534
条例	-9535
海水	-9536
うしろ	-9537
欲しい	-9538
驚いた	-9539
本を	-9540
群の	-9541
で見	-9542
一年	-9543
KA	-9544
大字	-9545
こちらは	-9546
を収めた	-9547
はん	-9548
空に	-9549
▁古代	-9550
ey	-9551
マイナー	-9552
難い	-9553
テクノ	-9554
まもなく	-9555
やその	-9556
化されている	-9557
じゅ	-9558
をす	-9559
を投げ	-9560
手として	-9561
夫人の	-9562
式で	-9563
脱出	-9564
ure	-9565
大量の	-9566
装置は	-9567
丁目にある	-9568
調達	-9569
たとえ	-9570
を図る	-9571
天皇は	-9572
同日	-9573
意向	-9574
▁関連	-9575
メイト	-9576
読む	-9577
を占領	-9578
を廃止	-9579
ありませんか	-9580
の形	-9581
天下	-9582
十分に	-9583
南の	-9584
国外	-9585
描かれている	-9586
だら	-9587
植物の	-9588
試合に	-9589
会社である	-9590
フットボール	-9591
活動は	-9592
これまでの	-9593
チナ	-9594
知る	-9595
が強い	-9596
が発足	-9597
終了後	-9598
タール	-9599
簡単に	-9600
のさ	-9601
02	-9602
に不	-9603
機材	-9604
発明	-9605
ビング	-9606
オリックス	-9607
に遭	-9608
TC	-9609
照明	-9610
MBS	-9611
社会党	-9612
クソン	-9613
ian	-9614
噴火	-9615
意義	-9616
の状態	-9617
を購入	-9618
現行	-9619
真似	-9620
考えられる	-9621
甚だ	-9622
順位	-9623
シオ	-9624
統括	-9625
を終了	-9626
ヘリコ	-9627
定める	-9628
要望	-9629
放送は	-9630
と称する	-9631
符号	-9632
安倍	-9633
を拒否	-9634
高く評価	-9635
近藤	-9636
世紀末	-9637
08	-9638
キャンペーン	-9639
モント	-9640
メロディ	-9641
ラグビー	-9642
機関の	-9643
沿いに	-9644
となると	-9645
代々	-9646
拘束	-9647
派が	-9648
ますます	-9649
を起こし	-9650
ルン	-9651
警察署	-9652
ファンタジー	-9653
伊東	-9654
尊敬	-9655
訴え	-9656
HO	-9657
本作の	-9658
軍艦	-9659
わしは	-9660
以後の	-9661
の如く	-9662
キノ	-9663
全線	-9664
あいつ	-9665
キャプ	-9666
を博	-9667
ウルス	-9668
ジャイアン	-9669
ファイナル	-9670
リーグ優勝	-9671
再開発	-9672
化石	-9673
特有	-9674
DP	-9675
ミッション	-9676
並ぶ	-9677
本店	-9678
ナップ	-9679
えており	-9680
砂漠	-9681
へ行	-9682
校舎	-9683
淡路	-9684
熊野	-9685
ってしまう	-9686
たの	-9687
正確な	-9688
分散	-9689
いつか	-9690
などにも	-9691
楽章	-9692
と発言	-9693
表記は	-9694
に過ぎない	-9695
ということは	-9696
タウ	-9697
1968	-9698
機として	-9699
所謂	-9700
を宣言	-9701
ゼー	-9702
日目	-9703
紙幣	-9704
ことだ	-9705
オフィス	-9706
▁1987	-9707
のタイトル	-9708
と交	-9709
天気	-9710
差異	-9711
空を	-9712
立法	-9713
さんも	-9714
を求めて	-9715
徳川家康	-9716
にや	-9717
これには	-9718
領主	-9719
ディオ	-9720
オレンジ	-9721
隠し	-9722
月下旬	-9723
どういう	-9724
の一部を	-9725
メソ	-9726
主導	-9727
町駅	-9728
%)	-9729
バリ	-9730
年夏	-9731
幾何	-9732
記録を	-9733
を引退	-9734
されることとなった	-9735
の時	-9736
展望	-9737
条第	-9738
船は	-9739
討伐	-9740
思い出	-9741
着用	-9742
自信	-9743
ber	-9744
ナチス	-9745
制定された	-9746
-8	-9747
ホッ	-9748
川と	-9749
へ移籍	-9750
を出て	-9751
前作	-9752
ともかく	-9753
ムシ	-9754
延び	-9755
液体	-9756
だけでも	-9757
北部の	-9758
(、	-9759
年秋	-9760
上がる	-9761
は上	-9762
大気	-9763
初となる	-9764
日本でも	-9765
シリーズでは	-9766
se	-9767
▁町	-9768
稼働	-9769
関心	-9770
タイガ	-9771
民営化	-9772
尽力	-9773
付近に	-9774
ばかりで	-9775
を求めた	-9776
地域に	-9777
られてきた	-9778
が困難	-9779
静かに	-9780
発生する	-9781
とて	-9782
物や	-9783
ION	-9784
せし	-9785
敗戦	-9786
母が	-9787
記した	-9788
面では	-9789
ブラウン	-9790
定数	-9791
yst	-9792
らった	-9793
ヴェー	-9794
の命	-9795
天体	-9796
蝦夷	-9797
ボーカル	-9798
収益	-9799
ようで	-9800
リゾ	-9801
と改称	-9802
広大な	-9803
日本人の	-9804
下位	-9805
アンテナ	-9806
ぐん	-9807
割引	-9808
書紀	-9809
土壌	-9810
海賊	-9811
段階で	-9812
結果的に	-9813
かれていた	-9814
▁Ch	-9815
▁アル	-9816
の事	-9817
加速	-9818
直後	-9819
述べる	-9820
適切な	-9821
▁1988	-9822
テレビ東京	-9823
ウラ	-9824
小松	-9825
山を	-9826
公衆	-9827
改装	-9828
1972	-9829
▁紀元前	-9830
▁古	-9831
表明	-9832
コンテン	-9833
わけではなく	-9834
ぶる	-9835
不幸	-9836
だけでは	-9837
海域	-9838
たちも	-9839
ラーは	-9840
ジャーナ	-9841
、1987	-9842
いつの	-9843
のちの	-9844
いけない	-9845
早稲田大学	-9846
でありました	-9847
の遺	-9848
られると	-9849
呼ぶ	-9850
話す	-9851
前述	-9852
口が	-9853
沢山	-9854
▁江戸時代	-9855
SM	-9856
敵対	-9857
共通の	-9858
運転台	-9859
余裕	-9860
崩御	-9861
路面	-9862
」.	-9863
分は	-9864
の種類	-9865
ダード	-9866
両者の	-9867
ックスの	-9868
リヤ	-9869
中島	-9870
▁for	-9871
前田	-9872
小田急	-9873
郵便局	-9874
二の	-9875
五輪	-9876
テリー	-9877
ファル	-9878
天皇が	-9879
▁東京都	-9880
に招	-9881
1945	-9882
ナラ	-9883
に関わる	-9884
会話	-9885
年ぶり	-9886
うな	-9887
-7	-9888
ばね	-9889
主流	-9890
したもので	-9891
▁当	-9892
一が	-9893
群馬県	-9894
までが	-9895
しまつた	-9896
、1950	-9897
使われていた	-9898
)「	-9899
別名	-9900
天の	-9901
に切り	-9902
インテ	-9903
たくさん	-9904
べる	-9905
五位	-9906
幼い	-9907
機関銃	-9908
。2019	-9909
レンジャー	-9910
アール	-9911
というものは	-9912
ショッピング	-9913
▁〜	-9914
休日	-9915
損失	-9916
成人	-9917
法的	-9918
浸透	-9919
ピーク	-9920
単純な	-9921
飛行機	-9922
後任	-9923
佐々木	-9924
圧力	-9925
彼に	-9926
隊長	-9927
に付	-9928
、1985	-9929
▁真	-9930
ネン	-9931
諸説	-9932
不動産	-9933
セルビア	-9934
東日本旅客鉄道	-9935
波の	-9936
飲料	-9937
レスの	-9938
、1988	-9939
叫んだ	-9940
幅広い	-9941
選ばれた	-9942
を極	-9943
不振	-9944
虐殺	-9945
時間に	-9946
が続いた	-9947
を譲	-9948
年代前半	-9949
銀座	-9950
の中国	-9951
通りに	-9952
ファースト	-9953
au	-9954
前身	-9955
播磨	-9956
ヴィルヘルム	-9957
十四	-9958
降下	-9959
ire	-9960
を経験	-9961
ットは	-9962
脅威	-9963
貫通	-9964
映画祭	-9965
駐車場	-9966
に戻った	-9967
新設された	-9968
業者	-9969
と思ひ	-9970
を大きく	-9971
家と	-9972
個々の	-9973
賞受賞	-9974
たた	-9975
原市	-9976
理念	-9977
回想	-9978
東側	-9979
紳士	-9980
あれは	-9981
キック	-9982
都市の	-9983
十九	-9984
技術の	-9985
を作った	-9986
和解	-9987
に沿って	-9988
を促	-9989
に重	-9990
ねん	-9991
おば	-9992
渡し	-9993
を採用している	-9994
是非	-9995
に頼	-9996
から一	-9997
傾向にある	-9998
が上	-9999
手な	-10000
節の	-10001
着する	-10002
道路の	-10003
だったという	-10004
ont	-10005
スタイ	-10006
くろ	-10007
以降も	-10008
プロテスタント	-10009
クは	-10010
過剰	-10011
の人々	-10012
を進め	-10013
名前の	-10014
人権	-10015
至る	-10016
ボクシング	-10017
チの	-10018
田川	-10019
▁作品	-10020
過程で	-10021
ようにして	-10022
コロンビア	-10023
謝罪	-10024
をまと	-10025
議会の	-10026
なぞ	-10027
リラ	-10028
模型	-10029
見せ	-10030
飛ぶ	-10031
日本軍	-10032
オプション	-10033
なければならぬ	-10034
ダの	-10035
作品で	-10036
を決めた	-10037
▁......	-10038
勧告	-10039
カント	-10040
グラウンド	-10041
出典	-10042
するところ	-10043
駄目	-10044
ストロ	-10045
似ている	-10046
的なもの	-10047
に貢献した	-10048
染色	-10049
を開設	-10050
わずかに	-10051
バッハ	-10052
下記の	-10053
が存在し	-10054
日に行われた	-10055
回衆議院議員総選挙	-10056
立た	-10057
per	-10058
して居る	-10059
立っている	-10060
抑制	-10061
顧客	-10062
カテゴ	-10063
されることがある	-10064
戯曲	-10065
救援	-10066
大会では	-10067
とす	-10068
エキ	-10069
提示	-10070
が登場する	-10071
破綻	-10072
の名は	-10073
さび	-10074
問題を	-10075
年前に	-10076
出走	-10077
に必要な	-10078
。2017	-10079
マの	-10080
東大	-10081
革新	-10082
されたり	-10083
アプリケーション	-10084
ベリア	-10085
メリット	-10086
化している	-10087
台風	-10088
に登録	-10089
文字の	-10090
明石	-10091
道が	-10092
風俗	-10093
で活動	-10094
報告書	-10095
けんどう	-10096
相対式ホーム	-10097
Ch	-10098
手続	-10099
木造	-10100
馬場	-10101
ミックス	-10102
。2002	-10103
城下	-10104
岡山県	-10105
修了	-10106
掌握	-10107
開かれた	-10108
殺し	-10109
ニアの	-10110
ムーネ	-10111
直前に	-10112
に従い	-10113
に移住	-10114
を訪問	-10115
ここから	-10116
上皇	-10117
値を	-10118
山駅	-10119
水産	-10120
▁路線	-10121
に当た	-10122
エンス	-10123
エンタ	-10124
新型コロナ	-10125
含む	-10126
オーク	-10127
ノーベル	-10128
に出る	-10129
クラスの	-10130
今も	-10131
足利義	-10132
面積は	-10133
者であった	-10134
1.	-10135
ふし	-10136
標識	-10137
かねて	-10138
を披露	-10139
変わり	-10140
実施された	-10141
を食べ	-10142
日本海	-10143
MV	-10144
砂糖	-10145
▁音楽	-10146
。15	-10147
▁やがて	-10148
どんなに	-10149
優勝した	-10150
と推定	-10151
の大型	-10152
新しく	-10153
はすべて	-10154
都市計画	-10155
検証	-10156
陣営	-10157
世界に	-10158
少年の	-10159
例である	-10160
入れている	-10161
--	-10162
れども	-10163
。2020	-10164
年シーズン	-10165
ディレクター	-10166
トレーニング	-10167
はし	-10168
勝利した	-10169
れん	-10170
師事	-10171
つぶ	-10172
妊娠	-10173
雪の	-10174
防御率	-10175
▁近年の	-10176
に対応する	-10177
。1980	-10178
モンスター	-10179
を被	-10180
松竹	-10181
委員会の	-10182
が強	-10183
に手	-10184
無人駅	-10185
踊り	-10186
オーナー	-10187
ビートル	-10188
の自由	-10189
やろう	-10190
同時期に	-10191
背負	-10192
コート	-10193
迎えた	-10194
形容	-10195
をとった	-10196
土地の	-10197
部隊は	-10198
を取った	-10199
を発表し	-10200
サンデー	-10201
番のりば	-10202
政務	-10203
上から	-10204
評論家	-10205
該当する	-10206
ブルガリア	-10207
キル	-10208
策定	-10209
長州	-10210
130	-10211
ord	-10212
ズに	-10213
菩薩	-10214
モデルの	-10215
特性	-10216
駈け	-10217
文を	-10218
内を	-10219
御殿	-10220
悲劇	-10221
ゼント	-10222
教科書	-10223
ひそ	-10224
閉店	-10225
でせう	-10226
pe	-10227
頭が	-10228
周囲の	-10229
建てられた	-10230
▁ラ	-10231
で約	-10232
エラ	-10233
造船	-10234
が勃発	-10235
2.	-10236
やし	-10237
デラ	-10238
民放	-10239
が起こり	-10240
改称	-10241
講和	-10242
ang	-10243
こともあって	-10244
器は	-10245
知名	-10246
テーション	-10247
北方	-10248
があると	-10249
妖怪	-10250
を結んだ	-10251
度か	-10252
用車	-10253
1)	-10254
僧侶	-10255
運び	-10256
半島の	-10257
岩手県	-10258
えなかった	-10259
つは	-10260
勢の	-10261
▁Com	-10262
作風	-10263
大量	-10264
関連の	-10265
ためには	-10266
人間は	-10267
少年は	-10268
たちまち	-10269
デザイナー	-10270
きを	-10271
永遠	-10272
発掘	-10273
経済的	-10274
豊かな	-10275
老人	-10276
落選	-10277
横浜市	-10278
によるもの	-10279
撃墜	-10280
様は	-10281
を担う	-10282
文化の	-10283
▁1986	-10284
びっくり	-10285
パナ	-10286
跨線	-10287
面が	-10288
福島県	-10289
硫黄	-10290
肖像	-10291
、30	-10292
ーンは	-10293
販売されている	-10294
。2018	-10295
金銭	-10296
並びに	-10297
ドリーム	-10298
所在する	-10299
タケ	-10300
出資	-10301
にはい	-10302
pt	-10303
八重	-10304
ial	-10305
掛ける	-10306
明確に	-10307
04	-10308
デッキ	-10309
苦しい	-10310
それでは	-10311
▁1985	-10312
codice	-10313
シド	-10314
具合	-10315
叩き	-10316
堂の	-10317
天才	-10318
に接	-10319
先進	-10320
後退	-10321
所在地	-10322
ネク	-10323
敗退	-10324
が発達	-10325
を獲得し	-10326
推奨	-10327
旧制	-10328
白く	-10329
近年の	-10330
年目	-10331
慶應	-10332
私を	-10333
脚注	-10334
に使用	-10335
パーツ	-10336
1979	-10337
アーケード	-10338
來る	-10339
宮内	-10340
探検	-10341
提出	-10342
政令	-10343
長岡	-10344
プロー	-10345
法では	-10346
落ちて	-10347
動機	-10348
の名を	-10349
めない	-10350
バット	-10351
パロ	-10352
福音	-10353
逸話	-10354
後者は	-10355
消えて	-10356
年が	-10357
問題が	-10358
本人は	-10359
作品である	-10360
に備	-10361
決意	-10362
課税	-10363
運動の	-10364
1975	-10365
を起こした	-10366
JCT	-10367
収穫	-10368
流入	-10369
ブの	-10370
天使	-10371
事業を	-10372
生活を送	-10373
違いない	-10374
HD	-10375
便宜	-10376
違法	-10377
乗務員	-10378
アフガニ	-10379
弾圧	-10380
恒星	-10381
を終えた	-10382
というもの	-10383
明か	-10384
いたり	-10385
指揮官	-10386
▁何	-10387
の四	-10388
指令	-10389
行方	-10390
随分	-10391
に着手	-10392
FF	-10393
ちゅう	-10394
ますが	-10395
パレス	-10396
。2001	-10397
ジーランド	-10398
HC	-10399
三重県	-10400
年前の	-10401
ツィア	-10402
体調	-10403
衣装	-10404
LED	-10405
なくては	-10406
就職	-10407
軽く	-10408
マリー	-10409
ニュージーランド	-10410
越前	-10411
が始まり	-10412
異なっている	-10413
休み	-10414
07	-10415
GA	-10416
わたり	-10417
友好	-10418
留置	-10419
を続けた	-10420
発足した	-10421
一般的である	-10422
の親	-10423
寝台	-10424
に会	-10425
ナビ	-10426
天保	-10427
聞く	-10428
駅を	-10429
思ふ	-10430
投球	-10431
東方	-10432
焼失	-10433
高崎	-10434
れると	-10435
NTT	-10436
ヘビー級	-10437
ノフ	-10438
▁内	-10439
タス	-10440
ブス	-10441
変形	-10442
長編	-10443
オスマン帝国	-10444
に直	-10445
完結	-10446
近隣	-10447
名古屋市	-10448
南米	-10449
鳥羽	-10450
を入れ	-10451
重力	-10452
云って	-10453
をつく	-10454
大学教授	-10455
三日	-10456
校の	-10457
寄りの	-10458
クトリア	-10459
シネ	-10460
横に	-10461
項では	-10462
チェック	-10463
▁Pro	-10464
番組である	-10465
したことにより	-10466
ry	-10467
捜索	-10468
立憲	-10469
を考え	-10470
番組が	-10471
に代わって	-10472
▁当初は	-10473
YO	-10474
人材	-10475
側近	-10476
宇治	-10477
寄付	-10478
年を	-10479
通学	-10480
クリー	-10481
普通列車	-10482
サウ	-10483
救助	-10484
検察	-10485
依然として	-10486
女を	-10487
普段	-10488
騎乗	-10489
ブログ	-10490
選挙で	-10491
容疑	-10492
らせる	-10493
進んで	-10494
が非常に	-10495
コミュニケーション	-10496
城に	-10497
子も	-10498
軽減	-10499
▁・	-10500
患者	-10501
賞金	-10502
されることが多い	-10503
がり	-10504
号機	-10505
祖先	-10506
おき	-10507
が無	-10508
回は	-10509
学士	-10510
難波	-10511
コック	-10512
が全	-10513
付加	-10514
域は	-10515
王位	-10516
いては	-10517
方式の	-10518
コムーネ	-10519
▁あらすじ	-10520
お前は	-10521
先端	-10522
寺に	-10523
真実	-10524
役として	-10525
置き換え	-10526
られていない	-10527
シンガポール	-10528
慶応	-10529
ぐらい	-10530
に住む	-10531
人々が	-10532
制服	-10533
太鼓	-10534
が出演	-10535
ヴェン	-10536
神社の	-10537
の製造	-10538
▁フランス	-10539
出現	-10540
混同	-10541
田園	-10542
する際に	-10543
誰が	-10544
には至	-10545
さで	-10546
愛称は	-10547
作品では	-10548
へい	-10549
三木	-10550
作画	-10551
婚姻	-10552
沈没	-10553
発車	-10554
ふたり	-10555
発売の	-10556
求められる	-10557
などによって	-10558
が施	-10559
羽田	-10560
朝日新聞	-10561
SI	-10562
ld	-10563
▁六	-10564
ダニ	-10565
その中で	-10566
込まれる	-10567
専念	-10568
昔の	-10569
が完成	-10570
甲府	-10571
西口	-10572
ボルト	-10573
方面の	-10574
社から	-10575
が増加	-10576
傘下	-10577
和平	-10578
閣僚	-10579
青木	-10580
イルド	-10581
これに対し	-10582
、......	-10583
増え	-10584
間接	-10585
姿を消	-10586
成る	-10587
所要	-10588
真理	-10589
返す	-10590
1973	-10591
んですよ	-10592
打ち上げ	-10593
どうぞ	-10594
フェラー	-10595
市にある	-10596
、1984	-10597
が発生する	-10598
と再	-10599
奨励	-10600
性や	-10601
THE	-10602
世代の	-10603
年生の	-10604
1974	-10605
しまって	-10606
を図った	-10607
現存する	-10608
増強	-10609
馬は	-10610
部分に	-10611
変化する	-10612
PA	-10613
筆頭	-10614
安全保障	-10615
石井	-10616
さうして	-10617
東南アジア	-10618
ロの	-10619
臨床	-10620
1964	-10621
に入れて	-10622
▁安	-10623
氏と	-10624
モニー	-10625
海戦	-10626
返り	-10627
音響	-10628
と並んで	-10629
ハードウェア	-10630
めており	-10631
一生	-10632
廃棄	-10633
をつける	-10634
悪く	-10635
ユース	-10636
と推測	-10637
に戻り	-10638
礼拝	-10639
進む	-10640
管理の	-10641
それとも	-10642
世紀には	-10643
09	-10644
直前の	-10645
が生じた	-10646
が重	-10647
兵の	-10648
常陸	-10649
洪水	-10650
が盛ん	-10651
けられた	-10652
少なくない	-10653
パック	-10654
番組で	-10655
直通運転	-10656
そんなことを	-10657
の人気	-10658
跨線橋	-10659
アルゼンチン	-10660
LD	-10661
の一部が	-10662
はそのまま	-10663
人であった	-10664
さんと	-10665
セール	-10666
協会の	-10667
ようだ	-10668
米ドル	-10669
れに	-10670
友達	-10671
地位を	-10672
が導入	-10673
飛んで	-10674
サンダー	-10675
、1986	-10676
▁外	-10677
党は	-10678
田区	-10679
皇族	-10680
食事	-10681
教育の	-10682
返して	-10683
皮肉	-10684
江戸時代の	-10685
めで	-10686
加熱	-10687
参議院議員	-10688
の表	-10689
容量	-10690
少佐	-10691
筋肉	-10692
に利用	-10693
キューバ	-10694
だけである	-10695
徴収	-10696
市から	-10697
は大きく	-10698
アレンジ	-10699
家として	-10700
驚く	-10701
ディン	-10702
速度は	-10703
分で	-10704
池袋	-10705
滑走	-10706
部下	-10707
いでいる	-10708
を率いて	-10709
コンテナ	-10710
▁初	-10711
下記	-10712
天神	-10713
も含めて	-10714
陸上競技	-10715
鉱山	-10716
かかり	-10717
つかない	-10718
ma	-10719
かみ	-10720
を否定	-10721
を示し	-10722
年代以降	-10723
▁1984	-10724
を告	-10725
ニオ	-10726
Mac	-10727
||0	-10728
ることができた	-10729
人格	-10730
もいる	-10731
確かに	-10732
かれており	-10733
すぎる	-10734
1967	-10735
ミュージカル	-10736
かぬ	-10737
の項	-10738
幼稚	-10739
の特徴	-10740
の父	-10741
義塾	-10742
ベリー	-10743
代将軍	-10744
▁{	-10745
ボウ	-10746
田原	-10747
たれた	-10748
品川	-10749
行い	-10750
がす	-10751
EW	-10752
巡査	-10753
を締結	-10754
そんなに	-10755
もう一度	-10756
救済	-10757
めん	-10758
力と	-10759
化と	-10760
研究科	-10761
ウェスト	-10762
されてしまう	-10763
で初	-10764
道に	-10765
デザインは	-10766
ex	-10767
こんだ	-10768
伊予	-10769
島根	-10770
900	-10771
の美	-10772
最初は	-10773
そのもの	-10774
1978	-10775
が少ない	-10776
のやうに	-10777
▁こうした	-10778
▁赤	-10779
首脳	-10780
っていなかった	-10781
コンスタンティ	-10782
げに	-10783
尋ね	-10784
路を	-10785
高山	-10786
の中継	-10787
、1972	-10788
大抵	-10789
いかに	-10790
村が	-10791
秘書	-10792
制作の	-10793
位相	-10794
室は	-10795
良好	-10796
▁名称	-10797
と命名	-10798
マイク	-10799
実際は	-10800
を備えた	-10801
河口	-10802
軍勢	-10803
が高く	-10804
盛んに	-10805
アドレス	-10806
皮切りに	-10807
云ひ	-10808
駅舎は	-10809
と言われた	-10810
役員	-10811
シフト	-10812
韓国の	-10813
日本書紀	-10814
が可能である	-10815
指摘されている	-10816
コク	-10817
レア	-10818
庶民	-10819
年後に	-10820
ブルース	-10821
っそ	-10822
温暖	-10823
顔を見	-10824
。2021	-10825
インターナショナル	-10826
古くは	-10827
最古の	-10828
テキスト	-10829
ニウム	-10830
何でも	-10831
プログラミング	-10832
や大	-10833
光景	-10834
正月	-10835
この年	-10836
あまりに	-10837
とされていた	-10838
のリ	-10839
っちゃ	-10840
を出版	-10841
城は	-10842
開き	-10843
man	-10844
キスタン	-10845
改編	-10846
秩父	-10847
調和	-10848
全長	-10849
を守る	-10850
シミュ	-10851
死した	-10852
登場し	-10853
どのような	-10854
藤田	-10855
だけを	-10856
協力を	-10857
広がり	-10858
かで	-10859
ッパ	-10860
外野	-10861
すこし	-10862
顔をして	-10863
艦艇	-10864
起こる	-10865
市川	-10866
BGM	-10867
内閣総理大臣	-10868
▁h	-10869
『』	-10870
シチ	-10871
明確な	-10872
のうちに	-10873
1965	-10874
必須	-10875
鉄道が	-10876
のこ	-10877
へ戻	-10878
の総	-10879
・4	-10880
ズル	-10881
伝達	-10882
国と	-10883
落下	-10884
ING	-10885
ハート	-10886
滋賀県	-10887
▁公	-10888
世界で	-10889
AV	-10890
りし	-10891
右翼	-10892
同意	-10893
感を	-10894
高田	-10895
記者会見	-10896
といっても	-10897
構え	-10898
楽園	-10899
識別	-10900
ソフトバンク	-10901
▁不	-10902
の根	-10903
三条	-10904
腕を	-10905
あたし	-10906
修道院	-10907
置かれている	-10908
藩士	-10909
どちらも	-10910
▁[	-10911
を襲	-10912
の言葉	-10913
還元	-10914
くると	-10915
に乗って	-10916
ショート	-10917
物として	-10918
多発	-10919
寿命	-10920
語る	-10921
の文字	-10922
ビスの	-10923
再放送	-10924
時期は	-10925
▁Z	-10926
中毒	-10927
団は	-10928
▁引退	-10929
アクセ	-10930
されたもの	-10931
師範	-10932
種牡馬	-10933
歳の時に	-10934
倉庫	-10935
わせた	-10936
同年に	-10937
▁ドイツ	-10938
月中	-10939
社に	-10940
近世	-10941
駿河	-10942
暫く	-10943
カプ	-10944
含まれる	-10945
▁イギリス	-10946
もり	-10947
進み	-10948
を指揮	-10949
キャラクターの	-10950
タバ	-10951
馬を	-10952
one	-10953
エルの	-10954
試合に出場	-10955
GE	-10956
始発	-10957
――」	-10958
が開催	-10959
倍の	-10960
日と	-10961
を再開	-10962
が残っている	-10963
描き	-10964
に相違	-10965
彼等は	-10966
その際	-10967
充分	-10968
国有	-10969
審議	-10970
山頂	-10971
101	-10972
過ぎた	-10973
1971	-10974
と話	-10975
を向	-10976
チオ	-10977
慣習	-10978
歌謡	-10979
1977	-10980
nt	-10981
同期	-10982
このほか	-10983
さなかった	-10984
地中海	-10985
の一部は	-10986
血管	-10987
の方は	-10988
ピット	-10989
フロー	-10990
ッソ	-10991
窒素	-10992
さっき	-10993
橋駅	-10994
派と	-10995
立地	-10996
系電車	-10997
つぎ	-10998
に収	-10999
コメディ	-11000
燃え	-11001
お前の	-11002
山口県	-11003
商業施設	-11004
を担当する	-11005
いす	-11006
カの	-11007
▁では	-11008
ジェン	-11009
会議で	-11010
、1975	-11011
なりません	-11012
アメリカで	-11013
互に	-11014
胸に	-11015
記す	-11016
その一	-11017
ビタミン	-11018
SH	-11019
復讐	-11020
銀行の	-11021
1966	-11022
前面	-11023
改訂	-11024
-19	-11025
かじめ	-11026
を投	-11027
アナウンス	-11028
ツク	-11029
▁人口	-11030
世紀から	-11031
ox	-11032
光は	-11033
その上	-11034
ピーター	-11035
台詞	-11036
突撃	-11037
com	-11038
の方針	-11039
内にある	-11040
開始された	-11041
Station	-11042
を教	-11043
セラー	-11044
ハイン	-11045
ートン	-11046
▁脚注	-11047
の土	-11048
商人	-11049
見方	-11050
先生の	-11051
ハリウッド	-11052
具体的には	-11053
東日本大震災	-11054
▁ク	-11055
あや	-11056
とん	-11057
pple	-11058
と呼んだ	-11059
することが多い	-11060
あき	-11061
やむ	-11062
補強	-11063
を支援	-11064
ライズ	-11065
大切	-11066
茶屋	-11067
に近づ	-11068
考え方	-11069
果実	-11070
受容	-11071
(=	-11072
どもの	-11073
勝手に	-11074
しっかり	-11075
終了後に	-11076
浦和	-11077
が挙げられる	-11078
おん	-11079
を倒	-11080
長に	-11081
を多く	-11082
十七	-11083
景観	-11084
に加盟	-11085
FIFA	-11086
がほとんど	-11087
公募	-11088
アルゴ	-11089
ピール	-11090
シュート	-11091
検索	-11092
ガイド	-11093
云つた	-11094
を迎える	-11095
岡崎	-11096
に編入	-11097
部では	-11098
1976	-11099
中華民国	-11100
成功した	-11101
ah	-11102
別荘	-11103
城主	-11104
大津	-11105
に入れた	-11106
マラソン	-11107
の一つとして	-11108
つる	-11109
会社は	-11110
手続き	-11111
ふう	-11112
客車	-11113
本体	-11114
グレー	-11115
大西洋	-11116
構造の	-11117
近くに	-11118
であるか	-11119
ロイヤル	-11120
ヘリコプター	-11121
は白	-11122
幅な	-11123
農村	-11124
部落	-11125
▁もう	-11126
主任	-11127
黒田	-11128
方法は	-11129
文句	-11130
を申し	-11131
セガ	-11132
作者	-11133
債権	-11134
かせる	-11135
まらず	-11136
も含む	-11137
したので	-11138
と比較して	-11139
自然に	-11140
出身の元	-11141
両国	-11142
で使用	-11143
略称は	-11144
の無	-11145
が開発	-11146
のですから	-11147
レーシング	-11148
考古	-11149
らせて	-11150
繰り返し	-11151
少な	-11152
曲線	-11153
おいで	-11154
ひどい	-11155
試合は	-11156
ボーイング	-11157
の裏	-11158
復旧	-11159
町と	-11160
医薬品	-11161
||||	-11162
にあたって	-11163
▁ストーリー	-11164
LE	-11165
が初めて	-11166
へ転	-11167
有馬	-11168
の際には	-11169
誤り	-11170
諸侯	-11171
ark	-11172
ってくる	-11173
ヒロイン	-11174
らる	-11175
バブル	-11176
をもとに	-11177
垂直	-11178
座に	-11179
ary	-11180
建物の	-11181
が可能な	-11182
ib	-11183
排出	-11184
継ぐ	-11185
邪魔	-11186
全集	-11187
武家	-11188
の音楽	-11189
計画が	-11190
オレ	-11191
政権の	-11192
気の毒	-11193
愉快	-11194
一時は	-11195
気動車	-11196
独自に	-11197
が生じる	-11198
のもとに	-11199
と同じように	-11200
切る	-11201
宮の	-11202
求め	-11203
津軽	-11204
を着用	-11205
正教会	-11206
を越えて	-11207
が起こった	-11208
若者	-11209
付きの	-11210
生物の	-11211
みん	-11212
リは	-11213
一層	-11214
夫人は	-11215
レーザー	-11216
......。」	-11217
プラットフォーム	-11218
抑え	-11219
来ました	-11220
、1983	-11221
三つ	-11222
去る	-11223
撃破	-11224
書類	-11225
▁概説	-11226
してある	-11227
するのに	-11228
チャンピオンズ	-11229
大公	-11230
志向	-11231
▁特に	-11232
角川	-11233
ヨハン	-11234
生放送	-11235
定められている	-11236
バナ	-11237
万葉	-11238
年寄	-11239
軽い	-11240
なると	-11241
コーン	-11242
サスペン	-11243
。1970	-11244
刊行された	-11245
ピラ	-11246
処に	-11247
技能	-11248
格納	-11249
構成される	-11250
大野	-11251
もしろ	-11252
何とか	-11253
立てて	-11254
年頃から	-11255
スワ	-11256
蜂起	-11257
中盤	-11258
したの	-11259
を避ける	-11260
リーグ戦	-11261
上級	-11262
()、	-11263
れも	-11264
ペース	-11265
▁先	-11266
元来	-11267
くとも	-11268
06	-11269
単独で	-11270
奈良県	-11271
AA	-11272
りつ	-11273
を辞	-11274
と名乗	-11275
ブルの	-11276
以内に	-11277
となったため	-11278
付与	-11279
代表される	-11280
下関	-11281
愛の	-11282
に大きく	-11283
スカウト	-11284
トリウム	-11285
を頼	-11286
人事	-11287
大事	-11288
米国の	-11289
ment	-11290
わぬ	-11291
コモ	-11292
が整備	-11293
がね	-11294
分か	-11295
末期の	-11296
と比べて	-11297
サークル	-11298
制作された	-11299
がく	-11300
掘り	-11301
面相	-11302
にこの	-11303
事前に	-11304
改札口	-11305
に次いで	-11306
川を	-11307
IBM	-11308
を閉	-11309
マト	-11310
仮定	-11311
吉本	-11312
電報	-11313
帝国大学	-11314
孤立	-11315
曖昧	-11316
なこと	-11317
ジロ	-11318
井は	-11319
の技術	-11320
などによる	-11321
DF	-11322
今夜	-11323
属の	-11324
瀬戸内	-11325
ユニバー	-11326
現役引退	-11327
知られた	-11328
が急	-11329
服装	-11330
の監督	-11331
ミラー	-11332
、1973	-11333
就航	-11334
の前で	-11335
にく	-11336
の底	-11337
新日本	-11338
研究会	-11339
朝鮮半島	-11340
に生まれる	-11341
北上	-11342
和泉	-11343
坂本	-11344
心持	-11345
ギャグ	-11346
過ぎて	-11347
を払	-11348
数で	-11349
春秋	-11350
▁道路	-11351
▁株式会社	-11352
とされるが	-11353
▁女	-11354
中立	-11355
んですか	-11356
の強	-11357
年半	-11358
律令	-11359
▁天正	-11360
黙って	-11361
システムは	-11362
コンド	-11363
コンビニ	-11364
警視庁	-11365
川越	-11366
支給	-11367
ちがい	-11368
を追加	-11369
エロ	-11370
被災	-11371
こいつ	-11372
徳川家	-11373
おろ	-11374
骨折	-11375
落ちた	-11376
などでも	-11377
まね	-11378
敗で	-11379
橋梁	-11380
が起きた	-11381
するようになり	-11382
LA	-11383
に参戦	-11384
トロン	-11385
サービスの	-11386
キの	-11387
之を	-11388
移管	-11389
艦の	-11390
カンパ	-11391
スピー	-11392
阿部	-11393
はもう	-11394
の町	-11395
彗星	-11396
短く	-11397
小説家	-11398
ビリ	-11399
関係が	-11400
なんでも	-11401
メニュー	-11402
描かれた	-11403
の初	-11404
されるため	-11405
済み	-11406
解雇	-11407
過激	-11408
全員が	-11409
財団法人	-11410
設定されている	-11411
かま	-11412
広報	-11413
難しく	-11414
グラフィック	-11415
を仕	-11416
となっているが	-11417
正統	-11418
を加え	-11419
定めた	-11420
、1968	-11421
する場合は	-11422
荷物	-11423
OCA	-11424
を上げ	-11425
劇場版	-11426
今後	-11427
食用	-11428
言語の	-11429
2、	-11430
イチ	-11431
デンの	-11432
労働組合	-11433
を発見した	-11434
マーシャル	-11435
喜劇	-11436
野田	-11437
い立ち	-11438
を破壊	-11439
フェア	-11440
原始	-11441
誰か	-11442
を指摘	-11443
本来は	-11444
電車の	-11445
を選択	-11446
アニア	-11447
役職	-11448
違ひ	-11449
収録されている	-11450
あわ	-11451
密度	-11452
浄土	-11453
カンド	-11454
主義者	-11455
に達した	-11456
が設立	-11457
ロープ	-11458
国内で	-11459
にわたる	-11460
ることなく	-11461
木材	-11462
解任	-11463
は以下のとおり	-11464
ッペ	-11465
対空	-11466
法学	-11467
を伴う	-11468
できるように	-11469
に触	-11470
を握	-11471
老人は	-11472
。1999	-11473
しず	-11474
括弧	-11475
認証	-11476
とくに	-11477
は世界	-11478
組織の	-11479
に向けた	-11480
CE	-11481
公布	-11482
姿が	-11483
▁他の	-11484
にでも	-11485
互いの	-11486
系統の	-11487
に再	-11488
狩猟	-11489
足が	-11490
正しく	-11491
〜』	-11492
の奥	-11493
音は	-11494
インスト	-11495
タイト	-11496
ミック	-11497
任意の	-11498
全体を	-11499
アンダー	-11500
金融機関	-11501
警告	-11502
ide	-11503
地上波	-11504
ではある	-11505
仮面ライダー	-11506
娯楽	-11507
を立ち	-11508
わっていた	-11509
に関する法律	-11510
しな	-11511
ヶ谷	-11512
言えば	-11513
、1982	-11514
組み合わせた	-11515
ウー	-11516
賞の	-11517
が設置され	-11518
バスケット	-11519
ージェ	-11520
にかかる	-11521
をもたらす	-11522
layStation	-11523
神殿	-11524
公務員	-11525
場所で	-11526
学位	-11527
駅発着	-11528
なんだか	-11529
を訪れた	-11530
理由として	-11531
アメリカでは	-11532
タナ	-11533
並び	-11534
の子孫	-11535
アーム	-11536
オイル	-11537
ドール	-11538
バリア	-11539
を受けていた	-11540
予告	-11541
予言	-11542
元気	-11543
蓄積	-11544
親族	-11545
将来の	-11546
書は	-11547
打者	-11548
領の	-11549
▁The	-11550
中央競馬	-11551
ということが	-11552
ということで	-11553
生は	-11554
age	-11555
内部の	-11556
路線を	-11557
が何	-11558
で知られる	-11559
ウェブサイト	-11560
が取	-11561
関係を	-11562
もとより	-11563
三好	-11564
溶液	-11565
をなす	-11566
製作された	-11567
がなされた	-11568
国土交通省	-11569
に追	-11570
の葉	-11571
夏季	-11572
最適	-11573
素晴	-11574
考察	-11575
有する	-11576
2』	-11577
息を	-11578
正義	-11579
野党	-11580
ロータリー	-11581
どち	-11582
半径	-11583
の例	-11584
交付	-11585
陰謀	-11586
の人間	-11587
語った	-11588
の開	-11589
大蔵	-11590
推理	-11591
魅力	-11592
ふしぎ	-11593
文学部	-11594
納言	-11595
編曲	-11596
興奮	-11597
髪の	-11598
地球の	-11599
私には	-11600
の上を	-11601
おこ	-11602
鶴見	-11603
未満の	-11604
編成は	-11605
を取り戻	-11606
ローマの	-11607
チェスター	-11608
元禄	-11609
官が	-11610
が搭載	-11611
を扱う	-11612
ッティ	-11613
シリーズは	-11614
▁アメリカ合衆国	-11615
幼児	-11616
菊池	-11617
街の	-11618
視覚	-11619
ystem	-11620
同僚	-11621
黒人	-11622
▁近年	-11623
重工業	-11624
持っている	-11625
肯定	-11626
知らせ	-11627
pr	-11628
琵琶	-11629
説は	-11630
えたが	-11631
入りの	-11632
以外では	-11633
存在している	-11634
か所	-11635
原は	-11636
歌は	-11637
貸し	-11638
ッセイ	-11639
インドの	-11640
出版された	-11641
こととなった	-11642
小僧	-11643
総長	-11644
雨が	-11645
をそのまま	-11646
処置	-11647
妙に	-11648
家老	-11649
拳銃	-11650
残留	-11651
迷惑	-11652
ライド	-11653
表される	-11654
の年	-11655
紀伊	-11656
パール	-11657
よかった	-11658
日までは	-11659
抜擢	-11660
馴染	-11661
離れて	-11662
食糧	-11663
を重ね	-11664
合併し	-11665
ひて	-11666
化や	-11667
可決	-11668
同人	-11669
学名	-11670
無し	-11671
療養	-11672
と対立	-11673
地から	-11674
してゐた	-11675
に就任し	-11676
丹波	-11677
女性が	-11678
構造は	-11679
したほか	-11680
を見せる	-11681
で行われる	-11682
日本における	-11683
▁レ	-11684
れは	-11685
目黒	-11686
誌の	-11687
ネディ	-11688
1500	-11689
が始まる	-11690
設けられた	-11691
ムは	-11692
声明	-11693
色彩	-11694
ウォル	-11695
マンション	-11696
報酬	-11697
遠慮	-11698
クリーム	-11699
名誉教授	-11700
ちよ	-11701
号車	-11702
太子	-11703
船を	-11704
』)。	-11705
家から	-11706
したのである	-11707
値は	-11708
変遷	-11709
西鉄	-11710
のみに	-11711
美しく	-11712
大島	-11713
望遠	-11714
三振	-11715
アーキ	-11716
、1978	-11717
せり	-11718
相互作用	-11719
加減	-11720
大人	-11721
を使用して	-11722
連動	-11723
記録は	-11724
毎日放送	-11725
のではない	-11726
メンタリー	-11727
していたという	-11728
捕食	-11729
苦痛	-11730
三人の	-11731
することに	-11732
▁青	-11733
慶應義塾	-11734
ナリ	-11735
カリフォルニア州	-11736
倶楽	-11737
テキサス	-11738
かゝ	-11739
所蔵	-11740
浮上	-11741
を研究	-11742
多大な	-11743
に位置し	-11744
ゐて	-11745
を建て	-11746
云つて	-11747
本拠地	-11748
鹿児島県	-11749
自動券売機	-11750
雄の	-11751
国では	-11752
ちゃんと	-11753
意味する	-11754
が行われていた	-11755
カメ	-11756
管区	-11757
全体が	-11758
諸国の	-11759
を記録し	-11760
wit	-11761
目的は	-11762
重大な	-11763
のほかに	-11764
ございません	-11765
されることは	-11766
社名	-11767
肉体	-11768
を歴任	-11769
金剛	-11770
阿弥	-11771
1.5	-11772
青森県	-11773
▁無	-11774
幹事	-11775
応募	-11776
路の	-11777
勝利し	-11778
乗り換え	-11779
東芝	-11780
電灯	-11781
顔が	-11782
するなどの	-11783
に組み	-11784
一般的には	-11785
中等	-11786
忍び	-11787
火を	-11788
ローン	-11789
▁父	-11790
▁特	-11791
川町	-11792
意外	-11793
神は	-11794
her	-11795
と区別	-11796
一人で	-11797
JA	-11798
ギア	-11799
後年	-11800
と表現	-11801
ージー	-11802
合って	-11803
ばれている	-11804
の概念	-11805
のもとで	-11806
、1981	-11807
アイランド	-11808
リンは	-11809
いかなる	-11810
を目指して	-11811
ステークス	-11812
番人気	-11813
自らが	-11814
点である	-11815
そのために	-11816
:"	-11817
が新	-11818
ほどに	-11819
珍しく	-11820
を始める	-11821
ディスプレイ	-11822
ナレーション	-11823
ズと	-11824
君に	-11825
が掲載	-11826
内戦	-11827
法師	-11828
▁1983	-11829
アクセント	-11830
めき	-11831
動脈	-11832
掲示	-11833
ode	-11834
かせて	-11835
の名称は	-11836
不二	-11837
代行	-11838
次は	-11839
の推移	-11840
停留場	-11841
創設された	-11842
福田	-11843
に関与	-11844
まいか	-11845
ろうと	-11846
事件を	-11847
厚生労働	-11848
カワ	-11849
面倒	-11850
、1969	-11851
きみ	-11852
僅か	-11853
ときの	-11854
本人の	-11855
HT	-11856
堆積	-11857
深刻な	-11858
、100	-11859
も見られる	-11860
についた	-11861
殿堂	-11862
石垣	-11863
があれば	-11864
舞い	-11865
上では	-11866
日本ハム	-11867
コンテンツ	-11868
コンパクト	-11869
外部リンク	-11870
側を	-11871
器を	-11872
種が	-11873
ラト	-11874
させられた	-11875
グレイ	-11876
ードの	-11877
月中旬	-11878
身体を	-11879
補償	-11880
ローラ	-11881
広がる	-11882
史上初の	-11883
されていなかった	-11884
に入社	-11885
ザル	-11886
マシ	-11887
本質	-11888
私鉄	-11889
の方法	-11890
ティス	-11891
したように	-11892
れなかった	-11893
OB	-11894
イオ	-11895
仮想	-11896
眺め	-11897
が見える	-11898
▁このような	-11899
予報	-11900
合せ	-11901
知って	-11902
▁のりば	-11903
政界	-11904
オリジナルの	-11905
マネージャー	-11906
の主張	-11907
フェスティ	-11908
(,	-11909
ハロ	-11910
王者	-11911
百済	-11912
隊員	-11913
ホンダ	-11914
年間で	-11915
ボストン	-11916
ナイテッド	-11917
結成された	-11918
りや	-11919
▁当時	-11920
』("	-11921
この間	-11922
乞食	-11923
家へ	-11924
待遇	-11925
攻勢	-11926
あらかじめ	-11927
うか	-11928
の普及	-11929
制覇	-11930
校長	-11931
湘南	-11932
他人の	-11933
レベルの	-11934
のに対して	-11935
好評	-11936
チェル	-11937
バレン	-11938
できると	-11939
京浜	-11940
▁cm	-11941
につれ	-11942
ロジー	-11943
作品に	-11944
リゾート	-11945
後藤	-11946
mi	-11947
小泉	-11948
権が	-11949
趣旨	-11950
の設置	-11951
▁現在は	-11952
ッシ	-11953
鳥類	-11954
の変更	-11955
吾妻	-11956
DE	-11957
MT	-11958
創始	-11959
ダーク	-11960
ストーン	-11961
王が	-11962
ゼフ	-11963
バイオ	-11964
▁,	-11965
武道	-11966
をもう	-11967
おおむね	-11968
に選ばれた	-11969
の弟	-11970
世と	-11971
興業	-11972
人たち	-11973
今でも	-11974
南アフリカ	-11975
れたが	-11976
、1979	-11977
部に位置する	-11978
▁信	-11979
ギル	-11980
フルト	-11981
格闘技	-11982
生物学	-11983
なのである	-11984
政官	-11985
真面	-11986
破り	-11987
などである	-11988
を示している	-11989
を積	-11990
一揆	-11991
他社	-11992
団が	-11993
に対応した	-11994
記載されている	-11995
かき	-11996
任期	-11997
壁に	-11998
エスカ	-11999
5,	-12000
南極	-12001
無視	-12002
系が	-12003
ノミネ	-12004
シャルル	-12005
▁THE	-12006
を聞いた	-12007
しましょう	-12008
ことによって	-12009
ユナイテッド	-12010
▁%	-12011
野生	-12012
定期券	-12013
2023	-12014
拒絶	-12015
着工	-12016
被告	-12017
▁21	-12018
ったら	-12019
エルサ	-12020
一等	-12021
直前	-12022
を確立	-12023
いましょう	-12024
-18	-12025
からぬ	-12026
つては	-12027
と評価	-12028
の映画	-12029
改札機	-12030
ダイヤモンド	-12031
バスは	-12032
皇太子	-12033
関係で	-12034
判明した	-12035
運行する	-12036
が成立した	-12037
違いは	-12038
あわせて	-12039
最初から	-12040
ロフ	-12041
車輪	-12042
ack	-12043
だと思	-12044
早速	-12045
木が	-12046
農林	-12047
きわめて	-12048
平均的な	-12049
............	-12050
検出	-12051
馬が	-12052
-11	-12053
ame	-12054
にすぎ	-12055
の必要	-12056
を聞き	-12057
貴重な	-12058
国立公園	-12059
▁1950	-12060
▁現代	-12061
用いた	-12062
▁ド	-12063
ならん	-12064
へ出て	-12065
▁こうして	-12066
親友	-12067
の販売	-12068
、1971	-12069
ジャーナリスト	-12070
ここの	-12071
させると	-12072
チケット	-12073
マッカー	-12074
GO	-12075
しません	-12076
サンフランシスコ	-12077
バチ	-12078
主体	-12079
保全	-12080
説明する	-12081
基幹	-12082
ゲージ	-12083
社会人	-12084
選挙では	-12085
▁デ	-12086
役者	-12087
支社	-12088
決心	-12089
ありが	-12090
セーブ	-12091
停車場	-12092
最終回	-12093
理事長	-12094
当局	-12095
You	-12096
いており	-12097
ip	-12098
調節	-12099
ツール	-12100
とのこと	-12101
の森	-12102
紅白	-12103
ens	-12104
列島	-12105
笑った	-12106
例もある	-12107
書かれている	-12108
客の	-12109
栃木県	-12110
落した	-12111
は北	-12112
次ぎ	-12113
ver	-12114
ごとき	-12115
たびに	-12116
スコア	-12117
ロッコ	-12118
ばかりでなく	-12119
▁海	-12120
皇子	-12121
テレオ	-12122
心理学	-12123
に於ける	-12124
変身	-12125
市域	-12126
直営	-12127
賞を	-12128
高価	-12129
付近で	-12130
新幹線の	-12131
認められる	-12132
三島	-12133
が用いられる	-12134
oo	-12135
に努	-12136
を全	-12137
一同	-12138
わかった	-12139
グレート	-12140
三の	-12141
天守	-12142
真珠	-12143
ニーズ	-12144
仁親王	-12145
つである	-12146
、1974	-12147
を深	-12148
佐野	-12149
武力	-12150
消化	-12151
編成が	-12152
は西	-12153
連敗	-12154
飛行場	-12155
って行く	-12156
に取り組	-12157
世紀初頭	-12158
ng	-12159
ザイ	-12160
リアの	-12161
恐竜	-12162
-15	-12163
サウス	-12164
▁メ	-12165
の会	-12166
日向	-12167
王に	-12168
込まれて	-12169
薬の	-12170
飯田	-12171
に分割	-12172
傷を負	-12173
東口	-12174
はれて	-12175
グレゴ	-12176
人には	-12177
々として	-12178
と第	-12179
運搬	-12180
々しく	-12181
どこへ	-12182
ムスリ	-12183
カウント	-12184
、1967	-12185
OK	-12186
さや	-12187
テュ	-12188
注文	-12189
通商	-12190
りません	-12191
一杯	-12192
上流	-12193
南京	-12194
品を	-12195
遠ざ	-12196
日本が	-12197
を要する	-12198
、1964	-12199
。2022	-12200
もなかった	-12201
の異	-12202
洞窟	-12203
苦しみ	-12204
つて来た	-12205
であったという	-12206
中退	-12207
太い	-12208
生態	-12209
除く	-12210
有数の	-12211
の成績	-12212
を問わず	-12213
年連続で	-12214
CG	-12215
の約	-12216
が出現	-12217
テオ	-12218
反撃	-12219
急遽	-12220
シャツ	-12221
法学部	-12222
ちゃんは	-12223
つもりで	-12224
ヘッ	-12225
店で	-12226
、1976	-12227
。1998	-12228
は各	-12229
を聴	-12230
享保	-12231
反面	-12232
ROM	-12233
分けて	-12234
等しい	-12235
を失い	-12236
物語の	-12237
を目的に	-12238
カトリック教会	-12239
御用	-12240
楕円	-12241
直流	-12242
綺麗	-12243
訪れた	-12244
いつまでも	-12245
ジャケット	-12246
倒れ	-12247
哺乳	-12248
を読み	-12249
大型の	-12250
仲介	-12251
光学	-12252
ジオン	-12253
武蔵野	-12254
になってしまった	-12255
モス	-12256
男爵	-12257
tern	-12258
摂津	-12259
盛ん	-12260
言葉は	-12261
1963	-12262
・・	-12263
戦争で	-12264
計画を	-12265
されるようになり	-12266
佐久	-12267
山下	-12268
つてい	-12269
なくて	-12270
ピッチ	-12271
征伐	-12272
石は	-12273
おれは	-12274
キラ	-12275
布告	-12276
総会	-12277
を拡大	-12278
クラウ	-12279
ソ連の	-12280
東北地方	-12281
▁美	-12282
を用意	-12283
あさ	-12284
歓迎	-12285
法廷	-12286
駐屯	-12287
安定した	-12288
することから	-12289
線を有する地上駅	-12290
直轄	-12291
耐久	-12292
高温	-12293
OVA	-12294
ies	-12295
帝の	-12296
誘致	-12297
利用者	-12298
CR	-12299
の分	-12300
所から	-12301
準優勝	-12302
プロモーション	-12303
を任	-12304
住み	-12305
機で	-12306
系図	-12307
年度は	-12308
▁北海道	-12309
決まった	-12310
に選出された	-12311
おま	-12312
の金	-12313
アタ	-12314
十両	-12315
寒い	-12316
▁地域	-12317
ジェネ	-12318
兵を	-12319
幕末	-12320
我々	-12321
てきた	-12322
の間の	-12323
は後に	-12324
出来た	-12325
日現在	-12326
ような気が	-12327
パーティー	-12328
散歩	-12329
毎回	-12330
の流れ	-12331
万人を	-12332
アフガニスタン	-12333
控え	-12334
明日	-12335
の整備	-12336
新聞の	-12337
年時点で	-12338
CH	-12339
だす	-12340
リッ	-12341
りょう	-12342
取り扱	-12343
哲学者	-12344
愛媛県	-12345
研究者	-12346
理由から	-12347
売買	-12348
天候	-12349
死者	-12350
満州	-12351
進展	-12352
に進学	-12353
ワール	-12354
彼等の	-12355
男性は	-12356
取り組み	-12357
ことによる	-12358
も一	-12359
テス	-12360
測量	-12361
都営	-12362
お笑い	-12363
光を	-12364
▁主に	-12365
ダイエー	-12366
技師	-12367
▁名	-12368
機嫌	-12369
こんど	-12370
を開き	-12371
生じる	-12372
背景に	-12373
▁花	-12374
を造	-12375
を連	-12376
回送	-12377
組成	-12378
職の	-12379
鳴り	-12380
それと	-12381
鉄道は	-12382
おの	-12383
ひた	-12384
万枚	-12385
元帥	-12386
転用	-12387
に搭載	-12388
を制作	-12389
コーポ	-12390
世田	-12391
国語	-12392
探査	-12393
領有	-12394
自由な	-12395
駅周辺	-12396
どこから	-12397
アサ	-12398
あんた	-12399
るとき	-12400
を知る	-12401
ブロー	-12402
階建て	-12403
してくれ	-12404
アトラン	-12405
リダ	-12406
混ぜ	-12407
ルーツ	-12408
典型的な	-12409
代表取締役	-12410
歌う	-12411
適応	-12412
を開いた	-12413
ニル	-12414
疲労	-12415
北条氏	-12416
神戸市	-12417
いったい	-12418
タイガース	-12419
マケ	-12420
ond	-12421
るなど	-12422
して来た	-12423
そのほか	-12424
貧乏	-12425
事件は	-12426
彼らが	-12427
ひょ	-12428
小山	-12429
思考	-12430
ite	-12431
、21	-12432
場所は	-12433
重なる	-12434
▁1945	-12435
、1977	-12436
交際	-12437
塩基	-12438
常磐	-12439
監査	-12440
避け	-12441
分かる	-12442
助手	-12443
書簡	-12444
したる	-12445
石器	-12446
に終わり	-12447
のあった	-12448
リバ	-12449
暗黒	-12450
知的	-12451
マップ	-12452
彼女が	-12453
活動が	-12454
タは	-12455
仕様の	-12456
系列局	-12457
この年の	-12458
プロ野球選手	-12459
中東	-12460
今川	-12461
創建	-12462
有人	-12463
雪が	-12464
願寺	-12465
望遠鏡	-12466
ソニック	-12467
▁実	-12468
付随	-12469
幾つか	-12470
していることが	-12471
酒井	-12472
面から	-12473
それらは	-12474
バイエルン	-12475
波動	-12476
が進み	-12477
向こう	-12478
を表明した	-12479
かさ	-12480
姿は	-12481
沙汰	-12482
砲弾	-12483
▁FI	-12484
従業員	-12485
楽しむ	-12486
こみ	-12487
夫妻	-12488
捕獲	-12489
激怒	-12490
華族	-12491
血の	-12492
室で	-12493
改定	-12494
破産	-12495
そこの	-12496
ディナ	-12497
何だか	-12498
ファンの	-12499
▁ト	-12500
にくい	-12501
に来た	-12502
エット	-12503
ational	-12504
密接	-12505
紙に	-12506
額は	-12507
一方の	-12508
八王子	-12509
分が	-12510
)」「	-12511
あろう	-12512
いかにも	-12513
ようにな	-12514
を書いた	-12515
キャッシュ	-12516
1962	-12517
ラテン語	-12518
インタビューで	-12519
・『	-12520
体操	-12521
どおり	-12522
を機に	-12523
ガール	-12524
それには	-12525
おじ	-12526
冒頭	-12527
RPG	-12528
を依頼	-12529
に参加し	-12530
レンタル	-12531
今日では	-12532
失われた	-12533
選手権大会	-12534
に赴	-12535
の為	-12536
を欠	-12537
北区	-12538
平等	-12539
と考えていた	-12540
女中	-12541
説が	-12542
年度から	-12543
密な	-12544
車掌	-12545
関節	-12546
降水	-12547
▁第一	-12548
6000	-12549
Apple	-12550
めい	-12551
当事	-12552
らと共に	-12553
ux	-12554
侵害	-12555
に力を	-12556
例がある	-12557
在任	-12558
流用	-12559
満ち	-12560
がっこう	-12561
がき	-12562
カシ	-12563
国産	-12564
雨の	-12565
民族の	-12566
Suica	-12567
そん	-12568
夜に	-12569
沈黙	-12570
回戦で	-12571
国際連合	-12572
ものであるが	-12573
ly	-12574
コレ	-12575
党首	-12576
派閥	-12577
防災	-12578
ノミネート	-12579
の妻	-12580
ペラ	-12581
理学	-12582
前年の	-12583
日本一	-12584
陸軍の	-12585
EU	-12586
利便	-12587
筑波	-12588
とは別	-12589
編成の	-12590
手塚	-12591
樹脂	-12592
▁大阪	-12593
座標	-12594
断念	-12595
コラボ	-12596
を介して	-12597
残された	-12598
ボーン	-12599
管理する	-12600
▁ル	-12601
▁原	-12602
を呈	-12603
意気	-12604
準急	-12605
交通局	-12606
sc	-12607
工芸	-12608
連立	-12609
の中間	-12610
ステー	-12611
人気を博	-12612
がも	-12613
カブ	-12614
知の	-12615
あげた	-12616
受ける	-12617
昔から	-12618
されたという	-12619
南朝	-12620
志願	-12621
木曽	-12622
さまは	-12623
の意向	-12624
と批判	-12625
の死後	-12626
を付け	-12627
土曜日	-12628
自然の	-12629
は長	-12630
側で	-12631
各駅	-12632
早期	-12633
ee	-12634
バルセロ	-12635
うら	-12636
半数	-12637
工程	-12638
目となる	-12639
▁1982	-12640
ヴァイオリン	-12641
ヘイ	-12642
公の	-12643
刑務	-12644
序盤	-12645
首長	-12646
きます	-12647
をおこ	-12648
よろしい	-12649
シンガー	-12650
歳以上の	-12651
▁モ	-12652
は水	-12653
充当	-12654
尊重	-12655
空想	-12656
MLB	-12657
ミット	-12658
ースター	-12659
自由主義	-12660
好意	-12661
生み	-12662
決めた	-12663
程度で	-12664
自動的に	-12665
、1965	-12666
に所属する	-12667
ポンプ	-12668
大学は	-12669
をかける	-12670
かと思うと	-12671
という形で	-12672
ナトリウム	-12673
変数	-12674
後で	-12675
テルの	-12676
回大会	-12677
結果は	-12678
窓から	-12679
-9	-12680
を免	-12681
ロは	-12682
厚い	-12683
航行	-12684
薬剤	-12685
()。	-12686
から約	-12687
ぐり	-12688
ラフ	-12689
厳格	-12690
有る	-12691
ust	-12692
を発生	-12693
▁日本における	-12694
AK	-12695
が遅	-12696
マサ	-12697
合体	-12698
を通り	-12699
oh	-12700
中尉	-12701
先ず	-12702
微分	-12703
発祥	-12704
神秘	-12705
この時の	-12706
し始めた	-12707
ホームの	-12708
ねばならない	-12709
に導	-12710
ドキュメンタリー	-12711
千歳	-12712
わざと	-12713
キーボード	-12714
テレビ放送	-12715
となっていたが	-12716
;&	-12717
iz	-12718
すく	-12719
絶えず	-12720
東アジア	-12721
ヴェネツィア	-12722
の身	-12723
」)。	-12724
行動を	-12725
キャップ	-12726
オブジェクト	-12727
ここへ	-12728
代表作	-12729
国際的な	-12730
広まった	-12731
と称される	-12732
を形成する	-12733
大関	-12734
掲げ	-12735
最強	-12736
生じた	-12737
シャトル	-12738
をそれぞれ	-12739
行っていた	-12740
をま	-12741
客室	-12742
神道	-12743
人間に	-12744
▁例えば	-12745
さく	-12746
声の	-12747
愛好	-12748
の導入	-12749
有力な	-12750
線の駅	-12751
られること	-12752
プレーヤー	-12753
されてしまった	-12754
いけ	-12755
を産	-12756
招待	-12757
支流	-12758
退役	-12759
に昇格	-12760
カスタ	-12761
親しま	-12762
登場している	-12763
党が	-12764
JRA	-12765
の動き	-12766
パイプ	-12767
年頃に	-12768
がし	-12769
文は	-12770
々たる	-12771
ジェル	-12772
ビルの	-12773
とすれば	-12774
航空会社	-12775
ガム	-12776
ヶ岳	-12777
論を	-12778
だろうか	-12779
PlayStation	-12780
普遍	-12781
▁戦後	-12782
の範囲	-12783
はほぼ	-12784
をつか	-12785
評議会	-12786
ブロード	-12787
でデビュー	-12788
を務めている	-12789
データベース	-12790
優位	-12791
合わ	-12792
鑑賞	-12793
首位	-12794
万円の	-12795
以上が	-12796
見えない	-12797
表示される	-12798
圧迫	-12799
抽象	-12800
一つは	-12801
▁上記の	-12802
クリスマス	-12803
アシスタント	-12804
を固	-12805
ピク	-12806
麻雀	-12807
この際	-12808
の人口	-12809
ースは	-12810
時代劇	-12811
度で	-12812
百合	-12813
階の	-12814
スピン	-12815
大丈夫	-12816
まらない	-12817
タイミング	-12818
に迫	-12819
助言	-12820
州は	-12821
旗艦	-12822
棋士	-12823
だつて	-12824
と出会	-12825
。&	-12826
データを	-12827
名である	-12828
▁1979	-12829
センチメートル	-12830
安芸	-12831
検定	-12832
物で	-12833
科目	-12834
講座	-12835
沿いの	-12836
になっても	-12837
コンテスト	-12838
と小	-12839
ニヤ	-12840
開戦	-12841
ゐない	-12842
細かい	-12843
出席	-12844
学ぶ	-12845
山陰	-12846
盛期	-12847
集め	-12848
家庭用	-12849
さらなる	-12850
ハンマド	-12851
日にかけて	-12852
バスターミナル	-12853
新作	-12854
沿い	-12855
疑惑	-12856
阻害	-12857
をいう	-12858
▁七	-12859
ネコ	-12860
対外	-12861
財務	-12862
馬車	-12863
に専念	-12864
を計画	-12865
ミステ	-12866
接する	-12867
なのです	-12868
家である	-12869
ラジオ番組	-12870
所管	-12871
ケート	-12872
ファシ	-12873
我々の	-12874
ニックス	-12875
に基づいた	-12876
ことがあった	-12877
三大	-12878
が見え	-12879
年目の	-12880
豊富な	-12881
ホールディングス	-12882
南方	-12883
娘は	-12884
浅野	-12885
ich	-12886
幼稚園	-12887
8000	-12888
いていたが	-12889
はら	-12890
年金	-12891
辞典	-12892
みたいな	-12893
PL	-12894
がみ	-12895
元老	-12896
は当時	-12897
関わり	-12898
月までは	-12899
につく	-12900
ついで	-12901
秋田県	-12902
シベリア	-12903
解答	-12904
▁1981	-12905
エリザベス	-12906
伝えられている	-12907
数千	-12908
行使	-12909
に生息	-12910
するためには	-12911
バリエーション	-12912
CC	-12913
□□	-12914
ll	-12915
を強く	-12916
社長の	-12917
合金	-12918
帯び	-12919
府中	-12920
町で	-12921
キャプテン	-12922
uc	-12923
郵政	-12924
アルミ	-12925
体である	-12926
は他の	-12927
GH	-12928
エビ	-12929
器具	-12930
摩擦	-12931
重臣	-12932
鋭い	-12933
かと思	-12934
▁単式ホーム	-12935
住吉	-12936
來て	-12937
問い	-12938
起訴	-12939
に昇進	-12940
従五位	-12941
ではこの	-12942
ハイブリ	-12943
示された	-12944
懸命	-12945
さから	-12946
ニール	-12947
レード	-12948
発した	-12949
方面への	-12950
キリスト教徒	-12951
出来なかった	-12952
こだ	-12953
カミ	-12954
古河	-12955
しないで	-12956
が無く	-12957
に移行	-12958
司令部	-12959
プロセス	-12960
が存在した	-12961
が手	-12962
公爵	-12963
内野	-12964
常識	-12965
返した	-12966
UF	-12967
つち	-12968
新造	-12969
社団	-12970
の意見	-12971
分野で	-12972
性的な	-12973
的存在	-12974
過ごした	-12975
考えられている	-12976
告白	-12977
越え	-12978
ストック	-12979
事がある	-12980
屋は	-12981
を前提	-12982
ウラン	-12983
豊臣秀吉	-12984
。1996	-12985
圏の	-12986
ステレオ	-12987
ばし	-12988
をみ	-12989
自立	-12990
頼朝	-12991
ium	-12992
に興味	-12993
ハンドル	-12994
に特	-12995
土俵	-12996
足で	-12997
ock	-12998
に分布	-12999
を変え	-13000
進んだ	-13001
けていた	-13002
昼間	-13003
戦った	-13004
▁多くの	-13005
ベンチャー	-13006
も同	-13007
戦場	-13008
回った	-13009
が設けられている	-13010
▁清	-13011
ハラ	-13012
右の	-13013
牝馬	-13014
視察	-13015
ain	-13016
エミ	-13017
採択	-13018
白色	-13019
▁注釈	-13020
があつた	-13021
その間に	-13022
の一部の	-13023
日本語の	-13024
やさ	-13025
湾岸	-13026
釈放	-13027
カルト	-13028
出版社	-13029
様子が	-13030
委員会は	-13031
を利用する	-13032
EF	-13033
不全	-13034
之介	-13035
北口	-13036
骨格	-13037
に入団	-13038
に行った	-13039
選手として	-13040
傍ら	-13041
民法	-13042
阿波	-13043
are	-13044
架空の	-13045
高度な	-13046
描く	-13047
盗塁	-13048
駅構内	-13049
ホイール	-13050
英語では	-13051
Un	-13052
川水	-13053
改築	-13054
を派遣	-13055
ッシャー	-13056
歩道	-13057
▁to	-13058
工場の	-13059
▁スポーツ	-13060
▁生い立ち	-13061
の一種である	-13062
知られていた	-13063
ブラウ	-13064
俳優の	-13065
決勝で	-13066
ピストル	-13067
変な	-13068
顔の	-13069
▁さて	-13070
フィラ	-13071
ージュ	-13072
初期に	-13073
特有の	-13074
GB	-13075
外見	-13076
松浦	-13077
風は	-13078
を超えた	-13079
バラエティ番組	-13080
倒産	-13081
実証	-13082
小川	-13083
役は	-13084
ベニア	-13085
太郎の	-13086
患者の	-13087
状態の	-13088
太夫	-13089
を集めた	-13090
▁1978	-13091
忽ち	-13092
那須	-13093
▁には	-13094
越した	-13095
石が	-13096
附近	-13097
に合格	-13098
代わり	-13099
せざるを得	-13100
▁み	-13101
里の	-13102
col	-13103
を押し	-13104
シールド	-13105
をもたらした	-13106
突如	-13107
と契約	-13108
に到達	-13109
を可能	-13110
土地を	-13111
東区	-13112
神を	-13113
習得	-13114
行先	-13115
起点	-13116
の路線	-13117
ユーゴ	-13118
▁となる	-13119
来ている	-13120
案が	-13121
に挑戦	-13122
マンド	-13123
含まれ	-13124
祖母	-13125
ウスは	-13126
への影響	-13127
▁僕は	-13128
▁平成	-13129
タンの	-13130
小惑星	-13131
一般には	-13132
島で	-13133
ほとんどは	-13134
とも言われる	-13135
ラウ	-13136
情を	-13137
ime	-13138
の番組	-13139
を加えて	-13140
んでいたが	-13141
変わらない	-13142
ツォ	-13143
ラド	-13144
出生	-13145
旗本	-13146
薬物	-13147
配属	-13148
を演じ	-13149
つけられた	-13150
セントラル	-13151
に参	-13152
大井	-13153
であったことから	-13154
▁義	-13155
残存	-13156
酒造	-13157
古代の	-13158
残念	-13159
シリン	-13160
不安定	-13161
兼ね	-13162
冗談	-13163
左右に	-13164
優等	-13165
崩れ	-13166
柔ら	-13167
調査では	-13168
VA	-13169
様が	-13170
銀の	-13171
急いで	-13172
後述する	-13173
の発達	-13174
帰った	-13175
落とし	-13176
届け	-13177
が立ち	-13178
捨てて	-13179
を築いた	-13180
撤退した	-13181
積極的な	-13182
肩を	-13183
ある日	-13184
熊本県	-13185
の背	-13186
症候	-13187
西欧	-13188
偉大な	-13189
それより	-13190
ジャイアンツ	-13191
シロ	-13192
名も	-13193
次官	-13194
絶望	-13195
ピンク	-13196
開発の	-13197
テレビ局	-13198
皇室	-13199
でその	-13200
と説明	-13201
パンタ	-13202
ネット局	-13203
与えられた	-13204
大幅に	-13205
に分けられる	-13206
点在	-13207
▁ただ	-13208
学んだ	-13209
それらを	-13210
に所属していた	-13211
ねじ	-13212
ミズ	-13213
津波	-13214
を確認	-13215
メット	-13216
海軍は	-13217
モデルは	-13218
▁このように	-13219
ることが出来	-13220
3)	-13221
神が	-13222
窓の	-13223
診療	-13224
マント	-13225
を決める	-13226
を理由に	-13227
フン	-13228
耳を	-13229
色々	-13230
順調	-13231
大聖堂	-13232
権力を	-13233
。1997	-13234
なぎ	-13235
カツ	-13236
隠れ	-13237
いいえ	-13238
ボラン	-13239
億ドル	-13240
形式で	-13241
と云って	-13242
イリ	-13243
伊賀	-13244
松井	-13245
藩は	-13246
話で	-13247
短期間	-13248
▁アニメ	-13249
型式	-13250
決戦	-13251
管制	-13252
豊田	-13253
そうと	-13254
使える	-13255
大なる	-13256
小型の	-13257
病院で	-13258
降りて	-13259
反論	-13260
整数	-13261
が用意	-13262
を題材	-13263
一時的に	-13264
史跡	-13265
鳥居	-13266
はさらに	-13267
を説	-13268
入門	-13269
八郎	-13270
学年	-13271
インパ	-13272
自分に	-13273
1961	-13274
鎌倉時代	-13275
ホームページ	-13276
辺の	-13277
魚の	-13278
ることの	-13279
エクスプレス	-13280
増備	-13281
負荷	-13282
ヴィッド	-13283
便利	-13284
夜行	-13285
警報	-13286
Tub	-13287
にかけては	-13288
どき	-13289
入植	-13290
リーが	-13291
危険な	-13292
▁そんな	-13293
売店	-13294
帽子	-13295
技法	-13296
の設計	-13297
ハイブリッド	-13298
調の	-13299
おじい	-13300
に繋が	-13301
小笠原	-13302
バンダイ	-13303
没収	-13304
内容の	-13305
▁1972	-13306
そのものが	-13307
ヒン	-13308
味噌	-13309
土器	-13310
折り返し	-13311
付く	-13312
復活した	-13313
。1960	-13314
って行った	-13315
フェスティバル	-13316
フが	-13317
JIS	-13318
▁とは	-13319
が終了	-13320
そいつ	-13321
位置し	-13322
間では	-13323
形成された	-13324
を中心として	-13325
▁御	-13326
イヤ	-13327
家や	-13328
影が	-13329
っぱら	-13330
で運行	-13331
中央区	-13332
るような	-13333
人であり	-13334
点がある	-13335
崇拝	-13336
換装	-13337
正当	-13338
決着	-13339
ゲット	-13340
トゥー	-13341
バータ	-13342
うす	-13343
ミシ	-13344
寛政	-13345
カレー	-13346
勢力の	-13347
違って	-13348
1930	-13349
カードの	-13350
を記念して	-13351
マドリード	-13352
に下	-13353
土木	-13354
差は	-13355
とび	-13356
学び	-13357
英語で	-13358
トーマス	-13359
自由民主党	-13360
SO	-13361
米軍	-13362
電信	-13363
160	-13364
Web	-13365
▁22	-13366
得ない	-13367
父親は	-13368
エンジニア	-13369
に掲載された	-13370
もや	-13371
後方	-13372
民俗	-13373
を離れ	-13374
アダム	-13375
動かす	-13376
タイトルは	-13377
を減	-13378
州都	-13379
マンガ	-13380
方法で	-13381
長い間	-13382
たしかに	-13383
は日本の	-13384
またその	-13385
定期的に	-13386
プレゼント	-13387
RO	-13388
出口	-13389
の由来	-13390
トリオ	-13391
労働者の	-13392
居ります	-13393
出の	-13394
書に	-13395
を採用し	-13396
リティー	-13397
で結	-13398
▁II	-13399
ダート	-13400
指揮者	-13401
吹き替え	-13402
▁'	-13403
▁Q	-13404
せき	-13405
の母	-13406
ウリ	-13407
の手紙	-13408
解説者	-13409
になったが	-13410
ニッポン放送	-13411
していたことが	-13412
八百	-13413
途絶	-13414
騎手	-13415
に移管	-13416
影響で	-13417
研究の	-13418
当たりの	-13419
ファミコン	-13420
日露	-13421
AB	-13422
客が	-13423
▁歴代	-13424
が原因	-13425
はれた	-13426
が伝	-13427
採用されている	-13428
ハマ	-13429
感動	-13430
無論	-13431
103	-13432
いたま	-13433
orld	-13434
経済成長	-13435
オートバイ	-13436
チリ	-13437
感心	-13438
ical	-13439
に敗れた	-13440
を設立し	-13441
失脚	-13442
浮き	-13443
が死去	-13444
と見られる	-13445
半導	-13446
言ひ	-13447
邸宅	-13448
高層	-13449
を追い	-13450
子供が	-13451
ぢやない	-13452
主要地方	-13453
したとされる	-13454
を現	-13455
計画の	-13456
情熱	-13457
で開催	-13458
の方に	-13459
。1995	-13460
変異	-13461
を表現	-13462
上った	-13463
文部科学	-13464
連載された	-13465
日平均乗降人員	-13466
兵は	-13467
に変換	-13468
を提案	-13469
同一の	-13470
簡単な	-13471
家畜	-13472
排水	-13473
ルーム	-13474
科学的	-13475
装置の	-13476
返事を	-13477
と語った	-13478
を与えられた	-13479
名人	-13480
あとで	-13481
以上は	-13482
友人の	-13483
対策として	-13484
していました	-13485
出演している	-13486
種子	-13487
由来する	-13488
三塁	-13489
をとって	-13490
んだろう	-13491
日までの	-13492
年度に	-13493
せられて	-13494
ライオンズ	-13495
境に	-13496
帰る	-13497
に際し	-13498
カーの	-13499
テール	-13500
借りて	-13501
来ない	-13502
は行われ	-13503
グマ	-13504
を無視	-13505
実質的に	-13506
アルゴリズム	-13507
次車	-13508
雲の	-13509
女性は	-13510
拠点を	-13511
、2023	-13512
示している	-13513
すす	-13514
全然	-13515
安政	-13516
東山	-13517
は当初	-13518
製作所	-13519
集めた	-13520
、1963	-13521
通りである	-13522
と相	-13523
ニク	-13524
号に	-13525
石原	-13526
高麗	-13527
子さん	-13528
。1994	-13529
消し	-13530
140	-13531
ong	-13532
を手が	-13533
前者は	-13534
関ヶ原	-13535
およびその	-13536
ミュンヘン	-13537
oft	-13538
翌年に	-13539
思われる	-13540
確信	-13541
と定義	-13542
の愛称	-13543
を行って	-13544
はいけない	-13545
▁光	-13546
会合	-13547
合法	-13548
を集め	-13549
ハイム	-13550
ビート	-13551
勢力が	-13552
名義で	-13553
自己の	-13554
▁1973	-13555
うれ	-13556
が得	-13557
反省	-13558
役を	-13559
能力が	-13560
花を	-13561
▁評価	-13562
にとも	-13563
の定義	-13564
を破り	-13565
傾向がある	-13566
置換	-13567
わたる	-13568
sh	-13569
▁車両	-13570
ヒンド	-13571
プラザ	-13572
求める	-13573
さすがに	-13574
にわたり	-13575
を拠点	-13576
ナイン	-13577
モーニング	-13578
の指導	-13579
を元に	-13580
世田谷	-13581
ストロー	-13582
小児	-13583
比率	-13584
どりの	-13585
富山県	-13586
将軍の	-13587
ダメージ	-13588
樺太	-13589
世界遺産	-13590
、1966	-13591
カンパニー	-13592
De	-13593
らば	-13594
んじ	-13595
木曜	-13596
の他に	-13597
世界的に	-13598
利用可能	-13599
酸化炭素	-13600
を参照のこと	-13601
撤回	-13602
後醍醐	-13603
講談社	-13604
ウォーター	-13605
さつ	-13606
を思	-13607
ギス	-13608
リーニ	-13609
一度も	-13610
止まり	-13611
BL	-13612
セグ	-13613
免疫	-13614
王妃	-13615
融資	-13616
に従う	-13617
などには	-13618
の主人公	-13619
週刊少年	-13620
はた	-13621
那覇	-13622
。14	-13623
サクラ	-13624
今では	-13625
上越	-13626
定員	-13627
級生	-13628
重賞	-13629
▁漫画	-13630
が悪い	-13631
に代わり	-13632
やってきた	-13633
を広	-13634
サロ	-13635
下流	-13636
なかで	-13637
に依存	-13638
競走馬	-13639
を挙げる	-13640
主人公の	-13641
がなされている	-13642
1・	-13643
諸葛	-13644
▁気候	-13645
雰囲気	-13646
裏に	-13647
に加入	-13648
名前は	-13649
▁現	-13650
円盤	-13651
月上	-13652
縄文	-13653
に渡り	-13654
を残している	-13655
▁ひ	-13656
えい	-13657
にの	-13658
外で	-13659
葉は	-13660
をもち	-13661
全土	-13662
バイル	-13663
してその	-13664
このことは	-13665
ムハンマド	-13666
生きている	-13667
断絶	-13668
本多	-13669
進め	-13670
の名で	-13671
液晶	-13672
は無い	-13673
外から	-13674
クラブの	-13675
あくまでも	-13676
ろうとする	-13677
で運転	-13678
その後に	-13679
休暇	-13680
ほんとうに	-13681
病の	-13682
ユーゴスラ	-13683
フィクション	-13684
場合の	-13685
者もいる	-13686
ゾー	-13687
バビ	-13688
氏に	-13689
漫才	-13690
聖職	-13691
表に	-13692
追悼	-13693
顔は	-13694
▁い	-13695
ATO	-13696
act	-13697
の舞台	-13698
を製造	-13699
大久保	-13700
その中に	-13701
を聞いて	-13702
ass	-13703
のだよ	-13704
という設定	-13705
ug	-13706
中川	-13707
危惧	-13708
が建設	-13709
Ar	-13710
の海	-13711
出羽	-13712
濃い	-13713
が誕生	-13714
りゅう	-13715
こんなに	-13716
が再	-13717
凍結	-13718
ヴォー	-13719
膨大な	-13720
わたくしは	-13721
ユニバーサル	-13722
山地	-13723
王立	-13724
西郷	-13725
調で	-13726
テニス	-13727
主題歌	-13728
ているが	-13729
と考えた	-13730
変わった	-13731
プレミアム	-13732
認められた	-13733
で放送されていた	-13734
〴〵	-13735
濃度	-13736
独り	-13737
神田	-13738
が放送	-13739
の大阪	-13740
を見せて	-13741
ゼネ	-13742
天狗	-13743
運送	-13744
▁高校	-13745
いっぱ	-13746
飲食店	-13747
切断	-13748
軍用	-13749
が就任	-13750
7000	-13751
日本軍の	-13752
などといった	-13753
に初	-13754
寺は	-13755
川口	-13756
▁第二	-13757
たちと	-13758
優秀な	-13759
止める	-13760
ルネサン	-13761
を目的として	-13762
最後は	-13763
oy	-13764
つゝ	-13765
の駅	-13766
シの	-13767
不利	-13768
本町	-13769
アーキテク	-13770
パーキング	-13771
くわ	-13772
スミ	-13773
親の	-13774
課長	-13775
困難な	-13776
エルサレム	-13777
を指定	-13778
近代化	-13779
前進	-13780
吊り	-13781
紋章	-13782
存在していた	-13783
ホウ	-13784
中性	-13785
宰相	-13786
悩ま	-13787
ッチャー	-13788
に叙	-13789
動向	-13790
支配下	-13791
合併して	-13792
跡を	-13793
しょに	-13794
だして	-13795
ブリュ	-13796
連続で	-13797
に達する	-13798
パロディ	-13799
××	-13800
必殺	-13801
に師事	-13802
もって	-13803
ブリン	-13804
メス	-13805
屋が	-13806
歌唱	-13807
郡は	-13808
マール	-13809
であつて	-13810
ことも多い	-13811
低減	-13812
処罰	-13813
屋に	-13814
得票	-13815
演習	-13816
に巻き	-13817
を学ぶ	-13818
行きの	-13819
、1945	-13820
プラスチック	-13821
キョ	-13822
手伝	-13823
業を	-13824
正常	-13825
アンティ	-13826
番組として	-13827
6,	-13828
に譲	-13829
の風	-13830
乗合	-13831
鉄砲	-13832
など様々な	-13833
グローバル	-13834
▁外部リンク	-13835
を目的とした	-13836
HP	-13837
VV	-13838
外来	-13839
最年	-13840
の発見	-13841
年時点	-13842
ブルック	-13843
で構成される	-13844
先住民	-13845
に陥った	-13846
自動車道の	-13847
の場	-13848
のほう	-13849
あなたが	-13850
ショット	-13851
廊下	-13852
が実現	-13853
まつた	-13854
建物は	-13855
兵が	-13856
女に	-13857
降車	-13858
-17	-13859
江戸幕府	-13860
冷戦	-13861
吉が	-13862
族は	-13863
隆盛	-13864
最寄り	-13865
生活に	-13866
去り	-13867
と改名	-13868
挙げた	-13869
バカ	-13870
国旗	-13871
交通の	-13872
ギタ	-13873
橋上	-13874
郷土	-13875
アウグ	-13876
マリン	-13877
発する	-13878
いろいろな	-13879
することができ	-13880
上田	-13881
古今	-13882
弾薬	-13883
東亜	-13884
も可能	-13885
4000	-13886
主張した	-13887
協同組合	-13888
しお	-13889
ガタ	-13890
修士	-13891
河野	-13892
食材	-13893
は再び	-13894
入れ替	-13895
工事を	-13896
無関係	-13897
マウント	-13898
教育機関	-13899
の仕	-13900
を張	-13901
を敷	-13902
ワク	-13903
作る	-13904
先祖	-13905
南口	-13906
容器	-13907
平行	-13908
飲む	-13909
2,000	-13910
▁1975	-13911
本州	-13912
本能	-13913
除去	-13914
年以来	-13915
怪しい	-13916
話では	-13917
はいった	-13918
語である	-13919
ソウ	-13920
佐世	-13921
も同じ	-13922
マンが	-13923
命じた	-13924
した後に	-13925
を満たす	-13926
特徴的な	-13927
ロンドンの	-13928
すば	-13929
の心	-13930
今度	-13931
パウロ	-13932
上での	-13933
大統領の	-13934
を果たしている	-13935
けると	-13936
で優勝	-13937
▁黒	-13938
の白	-13939
教義	-13940
を推進	-13941
化合物	-13942
機能が	-13943
設定された	-13944
もお	-13945
平は	-13946
ラード	-13947
の方から	-13948
と共	-13949
。13	-13950
を挟んで	-13951
影響を及ぼ	-13952
▁相対式ホーム	-13953
さり	-13954
何ん	-13955
と答	-13956
大の	-13957
ウェールズ	-13958
、“	-13959
不要	-13960
兼任	-13961
嫌い	-13962
遠藤	-13963
魔術	-13964
その間	-13965
は一切	-13966
らって	-13967
事業は	-13968
国から	-13969
年代半ば	-13970
尾崎	-13971
ルーズ	-13972
幅広く	-13973
約聖書	-13974
との間の	-13975
のところ	-13976
までには	-13977
奉公	-13978
奥州	-13979
激減	-13980
焼け	-13981
起因	-13982
PER	-13983
▁1969	-13984
に変更した	-13985
タム	-13986
放置	-13987
産物	-13988
施設は	-13989
ドナルド	-13990
事記	-13991
緑の	-13992
酷な	-13993
訪れる	-13994
パレスチナ	-13995
書いている	-13996
路線である	-13997
▁た	-13998
吉川	-13999
NBA	-14000
を指して	-14001
ニュータウン	-14002
ヴィクトリア	-14003
にま	-14004
新羅	-14005
西宮	-14006
解剖	-14007
▁上記	-14008
収入は	-14009
に用いられる	-14010
▁ロ	-14011
主教	-14012
ATM	-14013
属する	-14014
誰でも	-14015
主要地方道	-14016
から第	-14017
形式は	-14018
福岡市	-14019
を感じた	-14020
付けられ	-14021
日平均乗車人員は	-14022
を書く	-14023
広島市	-14024
月上旬	-14025
香川県	-14026
大統領は	-14027
だち	-14028
梅田	-14029
ith	-14030
の記録	-14031
代表の	-14032
年ほど	-14033
支払う	-14034
爆撃機	-14035
って来る	-14036
普及した	-14037
しかしこの	-14038
te	-14039
▁千	-14040
科医	-14041
藤井	-14042
スリー	-14043
状況を	-14044
所属する	-14045
フォーマット	-14046
することになり	-14047
IO	-14048
ての	-14049
実態	-14050
飛鳥	-14051
ラーメン	-14052
を助	-14053
シエ	-14054
外務省	-14055
果して	-14056
受け継が	-14057
どのように	-14058
があったため	-14059
西日本旅客鉄道	-14060
▁十	-14061
佐渡	-14062
するので	-14063
姿で	-14064
実力	-14065
数も	-14066
ost	-14067
▁構造	-14068
育った	-14069
となるため	-14070
満了	-14071
まさか	-14072
工場で	-14073
本人が	-14074
オロ	-14075
式典	-14076
することができた	-14077
を乗	-14078
ref	-14079
最近では	-14080
の制作	-14081
審議会	-14082
▁当時の	-14083
介護	-14084
月が	-14085
作者の	-14086
信じて	-14087
エンタテインメント	-14088
地質	-14089
日蓮	-14090
を設定	-14091
ネスコ	-14092
演じた	-14093
言つた	-14094
メーカーの	-14095
五百	-14096
フランツ	-14097
に依	-14098
りも	-14099
擁立	-14100
汎用	-14101
聴取	-14102
が広く	-14103
バルブ	-14104
美しさ	-14105
信徒	-14106
特例	-14107
艦長	-14108
ピアニ	-14109
情報の	-14110
ジュアル	-14111
議会議員	-14112
ハーフ	-14113
川流域	-14114
歩いた	-14115
へ行って	-14116
▁村	-14117
勅令	-14118
大韓	-14119
サンタ	-14120
ヤード	-14121
されたものの	-14122
に耐	-14123
に臨	-14124
久留	-14125
持続	-14126
クレイ	-14127
ナード	-14128
何かの	-14129
行つて	-14130
津田	-14131
地には	-14132
失敗した	-14133
ストレート	-14134
になってしまう	-14135
発し	-14136
貸切	-14137
▁st	-14138
渡って	-14139
大友	-14140
をその	-14141
5,000	-14142
日本シリーズ	-14143
パンの	-14144
南北朝	-14145
試合を	-14146
の火	-14147
は旧	-14148
使節	-14149
広義	-14150
洋服	-14151
▁23	-14152
に生まれた	-14153
持っていた	-14154
芸人	-14155
講習	-14156
に出席	-14157
佐世保	-14158
アルバイト	-14159
することが可能	-14160
▁運行	-14161
アミノ	-14162
人物が	-14163
アルプス	-14164
ユーゴスラビア	-14165
""	-14166
だめ	-14167
にわ	-14168
動揺	-14169
婚約	-14170
毎月	-14171
自家	-14172
顔に	-14173
場合も	-14174
奇妙な	-14175
EG	-14176
とで	-14177
尤も	-14178
350	-14179
和歌山県	-14180
曽根	-14181
津市	-14182
相応	-14183
ぎょう	-14184
内容を	-14185
思って	-14186
またこの	-14187
ることによって	-14188
儀礼	-14189
ビーチ	-14190
出身で	-14191
合いが	-14192
▁1971	-14193
っていると	-14194
つし	-14195
桃山	-14196
谷は	-14197
線から	-14198
必然	-14199
1944	-14200
になるが	-14201
に応じた	-14202
MF	-14203
味の	-14204
防空	-14205
und	-14206
が続く	-14207
受けて	-14208
男性の	-14209
障害者	-14210
を誘	-14211
一門	-14212
先づ	-14213
御所	-14214
を置き	-14215
モンテ	-14216
宗教的	-14217
まことに	-14218
という考え	-14219
三年	-14220
人質	-14221
メリー	-14222
の多くは	-14223
ノルマン	-14224
を終了した	-14225
バスケットボール	-14226
信玄	-14227
でこの	-14228
に敗れ	-14229
パルト	-14230
元々は	-14231
本名は	-14232
間にか	-14233
京急	-14234
個別	-14235
席の	-14236
豪華	-14237
リアー	-14238
ッキング	-14239
終わった	-14240
アルファベット	-14241
抱き	-14242
遮断	-14243
リッジ	-14244
詳しく	-14245
フォース	-14246
景気	-14247
」()	-14248
単位で	-14249
われない	-14250
とど	-14251
全身	-14252
弁当	-14253
衣服	-14254
に及ぶ	-14255
の主な	-14256
、1962	-14257
と評している	-14258
▁セ	-14259
ぞう	-14260
此処	-14261
稲荷	-14262
製鉄	-14263
おいて	-14264
ところの	-14265
ることが出来る	-14266
世論	-14267
政は	-14268
することなく	-14269
きが	-14270
数日	-14271
新興	-14272
時を	-14273
飛躍	-14274
に戻る	-14275
ますよ	-14276
映画監督	-14277
に存在する	-14278
大山	-14279
白の	-14280
で連絡	-14281
の有無	-14282
初期には	-14283
マッカーサー	-14284
を走	-14285
丸の	-14286
亜科	-14287
始末	-14288
産地	-14289
ase	-14290
そっと	-14291
世界観	-14292
活性化	-14293
電動機	-14294
ったもの	-14295
わざわざ	-14296
▁1976	-14297
パフォーマンス	-14298
なぐ	-14299
井沢	-14300
花火	-14301
連合軍	-14302
数少ない	-14303
に因	-14304
気に入	-14305
間違い	-14306
された後	-14307
可哀	-14308
とも言える	-14309
利用される	-14310
北側	-14311
指の	-14312
民事	-14313
いまだ	-14314
の一角	-14315
政府に	-14316
自分も	-14317
距離が	-14318
位である	-14319
営業運転	-14320
バルセロナ	-14321
DO	-14322
MG	-14323
山梨県	-14324
1940	-14325
アピール	-14326
が第	-14327
の対	-14328
出張	-14329
成熟	-14330
治世	-14331
のび太	-14332
を買収	-14333
シアター	-14334
短期大学	-14335
釈迦	-14336
ナーは	-14337
方式は	-14338
一枚	-14339
小沢	-14340
煙突	-14341
薬師	-14342
録画	-14343
バイク	-14344
立てる	-14345
純粋な	-14346
の主要な	-14347
過去には	-14348
新型コロナウイルス	-14349
流出	-14350
APAN	-14351
を使用し	-14352
早くから	-14353
俗に	-14354
生殖	-14355
ませう	-14356
トンの	-14357
ネズミ	-14358
各種の	-14359
連合艦隊	-14360
ではありませんか	-14361
おは	-14362
レフ	-14363
不在	-14364
子爵	-14365
赤坂	-14366
コープ	-14367
制度は	-14368
アイデア	-14369
獲得した	-14370
』。	-14371
タカ	-14372
優勢	-14373
行を	-14374
遊撃	-14375
院は	-14376
サーキット	-14377
南に	-14378
採掘	-14379
鑑定	-14380
を販売	-14381
日曜日	-14382
ウエ	-14383
舞鶴	-14384
行が	-14385
学校で	-14386
政権は	-14387
車両センター	-14388
引く	-14389
花が	-14390
▁Un	-14391
を決め	-14392
タラ	-14393
総統	-14394
線や	-14395
いったん	-14396
その上に	-14397
出場した	-14398
▁1968	-14399
されているため	-14400
現金	-14401
運ぶ	-14402
の立場	-14403
ままに	-14404
主人の	-14405
法改正	-14406
のものを	-14407
はいない	-14408
をめぐる	-14409
ことであった	-14410
ツと	-14411
汽車	-14412
ランス	-14413
詳しい	-14414
FR	-14415
やれ	-14416
基の	-14417
▁30	-14418
づくり	-14419
レーン	-14420
心から	-14421
に置き換	-14422
の上から	-14423
劉備	-14424
船橋	-14425
、50	-14426
で販売	-14427
の地位	-14428
能力の	-14429
されたものである	-14430
rp	-14431
やア	-14432
サヨ	-14433
睡眠	-14434
背番号	-14435
あたかも	-14436
しきりに	-14437
125	-14438
と並ぶ	-14439
にのみ	-14440
にも関	-14441
福井県	-14442
でしょうか	-14443
パシ	-14444
が続き	-14445
に派遣	-14446
博覧会	-14447
石川県	-14448
高校生	-14449
はしない	-14450
を連れて	-14451
コイ	-14452
料を	-14453
醤油	-14454
ここは	-14455
らずに	-14456
ドレス	-14457
かのように	-14458
参加している	-14459
を数	-14460
は全く	-14461
アンリ	-14462
そういった	-14463
するようになる	-14464
喜多	-14465
省は	-14466
チェコ	-14467
敗れた	-14468
んでしょう	-14469
の役	-14470
双方	-14471
この一	-14472
一部は	-14473
、1961	-14474
ヒョ	-14475
ハーン	-14476
大きかった	-14477
安田	-14478
財閥	-14479
を振り	-14480
周囲に	-14481
詳細な	-14482
と呼んでいる	-14483
するものである	-14484
られるようになった	-14485
信任	-14486
嫡男	-14487
率の	-14488
西は	-14489
雄が	-14490
ブール	-14491
製品の	-14492
日本での	-14493
其処	-14494
妥協	-14495
悪の	-14496
書房	-14497
村に	-14498
登記	-14499
が残る	-14500
▁和	-14501
半球	-14502
大内	-14503
斬り	-14504
順番	-14505
時期の	-14506
監督は	-14507
エッセイ	-14508
チャレンジ	-14509
知らなかった	-14510
乗組	-14511
伝記	-14512
何う	-14513
エアロ	-14514
シチリア	-14515
タゴ	-14516
宣告	-14517
自体の	-14518
開いた	-14519
と思つた	-14520
われており	-14521
▁か	-14522
勇気	-14523
南下	-14524
指標	-14525
若松	-14526
ひょう	-14527
ばかりに	-14528
性がある	-14529
両方	-14530
処女	-14531
格子	-14532
ある程度	-14533
を除いた	-14534
をき	-14535
専属	-14536
NET	-14537
双方の	-14538
に襲	-14539
作目	-14540
入賞	-14541
ork	-14542
を意識	-14543
ハリー	-14544
チームを	-14545
異なった	-14546
拉致	-14547
10%	-14548
コンの	-14549
札幌市	-14550
線では	-14551
そしてその	-14552
ともいえる	-14553
特番	-14554
町が	-14555
素数	-14556
複製	-14557
アルメ	-14558
動物園	-14559
行方不明	-14560
NR	-14561
守る	-14562
法定	-14563
給与	-14564
IVE	-14565
NPB	-14566
パンチ	-14567
長崎県	-14568
なことを	-14569
として機能	-14570
が採用された	-14571
経費	-14572
総務	-14573
を提唱	-14574
三国志	-14575
が多いが	-14576
各社	-14577
極端	-14578
親切	-14579
頭部	-14580
が増え	-14581
に至り	-14582
を踏襲	-14583
ミラノ	-14584
くじ	-14585
得て	-14586
時が	-14587
ホット	-14588
著しい	-14589
呼ばれる	-14590
とコメント	-14591
TD	-14592
がち	-14593
ノム	-14594
バグ	-14595
我慢	-14596
に持ち	-14597
もとの	-14598
京都の	-14599
今後の	-14600
内容が	-14601
として生まれる	-14602
▁多	-14603
ペア	-14604
公的	-14605
朝夕	-14606
青春	-14607
ace	-14608
を製作	-14609
ドニア	-14610
しながらも	-14611
チームメイト	-14612
UC	-14613
つう	-14614
に直接	-14615
わしの	-14616
スペインの	-14617
YouTub	-14618
ヤマハ	-14619
上には	-14620
選手は	-14621
インフラ	-14622
反響	-14623
句麗	-14624
ダース	-14625
ベック	-14626
ペルー	-14627
前後に	-14628
寄せて	-14629
絶対に	-14630
できるが	-14631
オファー	-14632
、1930	-14633
戸籍	-14634
の如き	-14635
も含め	-14636
小銃	-14637
摂政	-14638
起動	-14639
を有し	-14640
マニュ	-14641
レバー	-14642
いつでも	-14643
▁子	-14644
号と	-14645
官房	-14646
廃藩	-14647
水野	-14648
突っ	-14649
権を握	-14650
化により	-14651
車として	-14652
記している	-14653
_1	-14654
クモ	-14655
公益	-14656
異動	-14657
MVP	-14658
いわば	-14659
アーサー	-14660
ブッシュ	-14661
開始した	-14662
アメリカ人	-14663
BI	-14664
告げ	-14665
の構成	-14666
は同じ	-14667
を保持	-14668
を残す	-14669
空間の	-14670
通称は	-14671
PK	-14672
らえ	-14673
告知	-14674
地盤	-14675
断層	-14676
笑ひ	-14677
遺言	-14678
が発行	-14679
ロド	-14680
終焉	-14681
以下が	-14682
外国語	-14683
出撃	-14684
客観	-14685
弥生	-14686
当日	-14687
掃除	-14688
母艦	-14689
住民は	-14690
産駒	-14691
かしら	-14692
を禁止	-14693
好きで	-14694
止めた	-14695
尾根	-14696
性愛	-14697
豊橋	-14698
転向	-14699
閉じ	-14700
電燈	-14701
がいい	-14702
なさる	-14703
の上へ	-14704
シェイ	-14705
どころか	-14706
コンコース	-14707
の男	-14708
アキ	-14709
が確立	-14710
の多い	-14711
に指定された	-14712
しているという	-14713
ix	-14714
トス	-14715
▁Ex	-14716
の主題	-14717
を執筆	-14718
団体が	-14719
アルミニ	-14720
らによって	-14721
ローマ皇帝	-14722
hy	-14723
わん	-14724
事変	-14725
新生	-14726
死を	-14727
▁Ar	-14728
像が	-14729
減少し	-14730
ICOCA	-14731
"」	-14732
田辺	-14733
集まり	-14734
逮捕された	-14735
ベースボール	-14736
に包	-14737
の墓	-14738
二塁	-14739
余は	-14740
健全	-14741
到底	-14742
申す	-14743
ちやん	-14744
ギタリスト	-14745
上げられた	-14746
本塁打を放	-14747
▁年	-14748
南は	-14749
犯人	-14750
駆使	-14751
が行な	-14752
高性能	-14753
といわれ	-14754
カセット	-14755
上にある	-14756
よこ	-14757
を置	-14758
ヶ丘	-14759
支線	-14760
族が	-14761
盆地	-14762
▁re	-14763
どうだ	-14764
に変化	-14765
ナポリ	-14766
からです	-14767
められて	-14768
の首	-14769
一向	-14770
上場	-14771
上手	-14772
暮れ	-14773
リスナー	-14774
路面電車	-14775
ベリ	-14776
有り	-14777
なんぞ	-14778
行くと	-14779
アーキテクチャ	-14780
ざり	-14781
中へ	-14782
眼に	-14783
が引き	-14784
に改名	-14785
限らない	-14786
っとした	-14787
プローチ	-14788
▁明	-14789
の空	-14790
罪を	-14791
通知	-14792
天王寺	-14793
ムスリム	-14794
を目指した	-14795
デハ	-14796
定住	-14797
捉え	-14798
ソンが	-14799
ベートー	-14800
リングは	-14801
研究所の	-14802
発注	-14803
計量	-14804
集会	-14805
をよく	-14806
南北に	-14807
歳から	-14808
が約	-14809
直結	-14810
みれば	-14811
者であり	-14812
▁」	-14813
▁野	-14814
メダ	-14815
日程	-14816
郎は	-14817
を経営	-14818
トルク	-14819
の中で最も	-14820
傑作	-14821
功労	-14822
星は	-14823
おもしろ	-14824
ライブラ	-14825
社団法人	-14826
▁有	-14827
を移	-14828
・5	-14829
困る	-14830
転写	-14831
高は	-14832
がつく	-14833
正確に	-14834
ずみ	-14835
荒川	-14836
▁政治	-14837
原作の	-14838
小説の	-14839
▁ここで	-14840
東京メトロ	-14841
ラインナップ	-14842
二等	-14843
わしい	-14844
を検討	-14845
信長の	-14846
我々は	-14847
ローマ教皇	-14848
されていった	-14849
コリ	-14850
二百	-14851
擁護	-14852
殺した	-14853
芸能界	-14854
などして	-14855
ものです	-14856
などが挙げられる	-14857
書が	-14858
調印	-14859
VTR	-14860
を吸収	-14861
クリスト	-14862
を冠	-14863
奥羽	-14864
鳴き	-14865
ユネスコ	-14866
すけ	-14867
ラが	-14868
投与	-14869
見ても	-14870
眼の	-14871
義経	-14872
を繰り	-14873
人気が	-14874
ところから	-14875
をベースに	-14876
世襲	-14877
朝に	-14878
片側	-14879
親子	-14880
の開催	-14881
物質の	-14882
と異なる	-14883
することはできない	-14884
ひび	-14885
対処	-14886
がって	-14887
につけ	-14888
成績は	-14889
話した	-14890
それだけ	-14891
レーティング	-14892
シミュレーション	-14893
むす	-14894
何者	-14895
四角	-14896
水雷	-14897
▁慶長	-14898
、25	-14899
カーン	-14900
家族の	-14901
時間で	-14902
町から	-14903
を見つけ	-14904
切り替え	-14905
と呼ばれるようになった	-14906
DJ	-14907
いん	-14908
待機	-14909
のなかで	-14910
フィート	-14911
交通機関	-14912
ができない	-14913
集積	-14914
ile	-14915
つてる	-14916
を前に	-14917
に出演した	-14918
バッテリー	-14919
ることができない	-14920
できるようになった	-14921
じり	-14922
▁近代	-14923
に属し	-14924
の実験	-14925
ジョル	-14926
ゴシック	-14927
を引き起こす	-14928
暴動	-14929
者たち	-14930
いてゐる	-14931
どうやら	-14932
に際しては	-14933
重要文化財	-14934
あゝ	-14935
きょ	-14936
をふ	-14937
果て	-14938
段の	-14939
▁分類	-14940
そうで	-14941
早くも	-14942
span	-14943
。1992	-14944
してしまい	-14945
例としては	-14946
実務	-14947
県庁	-14948
進撃	-14949
の大名	-14950
事件で	-14951
ジメント	-14952
を実施した	-14953
No	-14954
をテーマ	-14955
国内では	-14956
ウズ	-14957
南側	-14958
群は	-14959
かろう	-14960
半七は	-14961
いながら	-14962
と称して	-14963
光明	-14964
参拝	-14965
司祭	-14966
かれは	-14967
の記述	-14968
仙台市	-14969
指定席	-14970
途中に	-14971
フィック	-14972
サギ	-14973
後漢	-14974
敗と	-14975
柔軟	-14976
を継ぐ	-14977
▁ラジオ	-14978
オリコン	-14979
世界選手権	-14980
していることを	-14981
免除	-14982
回戦	-14983
が入る	-14984
スミス	-14985
ッパー	-14986
経済の	-14987
場合でも	-14988
認められ	-14989
正の	-14990
第五	-14991
115	-14992
ERO	-14993
わずに	-14994
が生まれ	-14995
フォント	-14996
全部	-14997
炭酸	-14998
如何に	-14999
▁以上の	-15000
と考える	-15001
国である	-15002
が本	-15003
が展開	-15004
石に	-15005
ern	-15006
を失う	-15007
消費者	-15008
西部の	-15009
を与えて	-15010
▁1977	-15011
らとともに	-15012
を開始する	-15013
が必要となる	-15014
不快	-15015
硫酸	-15016
エール	-15017
年にも	-15018
セックス	-15019
プリンス	-15020
性の高い	-15021
件の	-15022
反動	-15023
均衡	-15024
朝倉	-15025
白人	-15026
レージ	-15027
由来の	-15028
しています	-15029
ダウンロード	-15030
▁成	-15031
俺の	-15032
準々	-15033
結城	-15034
警察官	-15035
にふ	-15036
二条	-15037
佐伯	-15038
尼崎	-15039
硬貨	-15040
階層	-15041
ブドウ	-15042
悲しい	-15043
カードは	-15044
スクリーン	-15045
ブライアン	-15046
コは	-15047
下は	-15048
実戦	-15049
で活躍	-15050
太郎が	-15051
子供は	-15052
。1993	-15053
報告されている	-15054
Pa	-15055
▁晩	-15056
を補	-15057
出荷	-15058
外線	-15059
に続く	-15060
ブロン	-15061
月二十	-15062
コロニー	-15063
ジョンの	-15064
づけた	-15065
デルタ	-15066
成り立つ	-15067
に代表される	-15068
ズを	-15069
の違い	-15070
ぶりに	-15071
を出た	-15072
占める	-15073
。1991	-15074
お嬢	-15075
に新	-15076
所有する	-15077
ステンレス	-15078
上を	-15079
切符	-15080
結構	-15081
さくら	-15082
部隊が	-15083
に於いて	-15084
日本初の	-15085
特色	-15086
藤沢	-15087
-16	-15088
に統一	-15089
もつと	-15090
軽井沢	-15091
ディーン	-15092
をモチーフ	-15093
ユニフォーム	-15094
意欲	-15095
眼が	-15096
難民	-15097
技術を	-15098
青年の	-15099
大学野球	-15100
重要である	-15101
利用されている	-15102
ノミ	-15103
両の	-15104
可変	-15105
危機に	-15106
期から	-15107
収録した	-15108
の口	-15109
中小	-15110
古来	-15111
外相	-15112
忠実	-15113
落合	-15114
に設置	-15115
老人の	-15116
たいへん	-15117
▁このほか	-15118
チカ	-15119
先は	-15120
飾り	-15121
を突き	-15122
ユーザ	-15123
おかしい	-15124
わたくし	-15125
都市である	-15126
がれ	-15127
代数	-15128
-12	-15129
GHQ	-15130
に見舞	-15131
を創設	-15132
企業が	-15133
「『	-15134
さか	-15135
バク	-15136
ヨル	-15137
一言	-15138
添加	-15139
三つの	-15140
、1959	-15141
▁|	-15142
ムル	-15143
寿司	-15144
日々	-15145
極端に	-15146
法律第	-15147
明治維新	-15148
してくれた	-15149
コンピューター	-15150
7,	-15151
歌を	-15152
参加し	-15153
した場合は	-15154
州で	-15155
直す	-15156
迎撃	-15157
除外	-15158
されるという	-15159
の文	-15160
オク	-15161
恐ろ	-15162
法華	-15163
▁明智	-15164
文化的	-15165
没した	-15166
単語	-15167
語彙	-15168
ベール	-15169
世間の	-15170
暮らし	-15171
icro	-15172
▁過去の	-15173
ケネディ	-15174
と新	-15175
を貫	-15176
愛国	-15177
縁起	-15178
アラン	-15179
ライヴ	-15180
はだ	-15181
グー	-15182
代謝	-15183
平衡	-15184
教団	-15185
自覚	-15186
あとは	-15187
その際に	-15188
のデザイン	-15189
スタンダード	-15190
込まれている	-15191
待避	-15192
標的	-15193
系で	-15194
複線	-15195
を学び	-15196
を超えて	-15197
重要な役割	-15198
▁島式ホーム	-15199
みと	-15200
まさに	-15201
まつり	-15202
リオン	-15203
に向かった	-15204
となったのは	-15205
死骸	-15206
電荷	-15207
ガスの	-15208
セキュ	-15209
或いは	-15210
日午前	-15211
丁寧	-15212
体積	-15213
喫茶	-15214
選ぶ	-15215
ホーク	-15216
1948	-15217
お客	-15218
を構	-15219
ウマ	-15220
拡散	-15221
消えた	-15222
与党	-15223
国府	-15224
安藤	-15225
さえも	-15226
支障	-15227
重ね	-15228
飛騨	-15229
を作って	-15230
背景には	-15231
せつ	-15232
ヨシ	-15233
を基本	-15234
種々の	-15235
さいたま	-15236
めず	-15237
シテ	-15238
吹く	-15239
寧ろ	-15240
支部	-15241
救急	-15242
後期の	-15243
説もある	-15244
地や	-15245
ウィー	-15246
完了した	-15247
少なかった	-15248
、0	-15249
公使	-15250
架空	-15251
父親の	-15252
圧倒的な	-15253
相次いで	-15254
「1	-15255
堤防	-15256
祈祷	-15257
風土	-15258
さして	-15259
チウム	-15260
リバー	-15261
差で	-15262
常時	-15263
真空	-15264
立川	-15265
に進出	-15266
冷たい	-15267
あんまり	-15268
を命じた	-15269
LP	-15270
後日	-15271
共同体	-15272
釧路	-15273
あえて	-15274
公式に	-15275
アダルト	-15276
を行なった	-15277
を設立した	-15278
官吏	-15279
行進	-15280
▁al	-15281
可能性を	-15282
らも	-15283
且つ	-15284
円の	-15285
氏を	-15286
ick	-15287
この結果	-15288
▁九	-15289
ドミ	-15290
像は	-15291
島が	-15292
流し	-15293
メンテ	-15294
発売されている	-15295
▁ノ	-15296
屋で	-15297
駅名	-15298
次郎は	-15299
事である	-15300
回に	-15301
縁の	-15302
問題視	-15303
ほんとに	-15304
▁1974	-15305
米の	-15306
臨海	-15307
の基礎	-15308
クロア	-15309
協奏曲	-15310
は東	-15311
を著	-15312
賞賛	-15313
』・『	-15314
次々に	-15315
翌日の	-15316
に移った	-15317
られるが	-15318
スプリング	-15319
としていたが	-15320
NC	-15321
テラ	-15322
石田	-15323
花は	-15324
酒の	-15325
月までに	-15326
置かれる	-15327
値が	-15328
無駄	-15329
腫瘍	-15330
触媒	-15331
下では	-15332
決定戦	-15333
ぼんやり	-15334
んですが	-15335
化される	-15336
方面から	-15337
源流	-15338
静止	-15339
キース	-15340
全国に	-15341
TP	-15342
あて	-15343
つが	-15344
店が	-15345
iss	-15346
の息子	-15347
を占め	-15348
リーナ	-15349
古事記	-15350
多くの場合	-15351
"、	-15352
オラ	-15353
する際	-15354
ッセル	-15355
ようにも	-15356
▁な	-15357
くし	-15358
すき	-15359
ラシ	-15360
一歩	-15361
採取	-15362
木戸	-15363
目撃	-15364
▁中世	-15365
乏しい	-15366
医学部	-15367
替える	-15368
駅では	-15369
こちらの	-15370
コンクール	-15371
を有している	-15372
を訴	-15373
争う	-15374
前方	-15375
等級	-15376
そうか	-15377
年間は	-15378
によっても	-15379
NO	-15380
ラバ	-15381
型で	-15382
赤色	-15383
鋳造	-15384
を起用	-15385
ポテン	-15386
Bl	-15387
▁岩	-15388
たて	-15389
本郷	-15390
で行う	-15391
訊いた	-15392
だったので	-15393
を持っており	-15394
「"	-15395
一家	-15396
大隊	-15397
幼虫	-15398
条項	-15399
貼り	-15400
.5%	-15401
、24	-15402
つつも	-15403
を希望	-15404
力発電	-15405
相当の	-15406
ence	-15407
と云った	-15408
と答えた	-15409
が含まれる	-15410
という概念	-15411
旅団	-15412
村山	-15413
橋は	-15414
スタル	-15415
ハド	-15416
助は	-15417
西方	-15418
の第一	-15419
シンセ	-15420
式野球	-15421
アテ	-15422
光る	-15423
牛乳	-15424
倒れた	-15425
してくる	-15426
ばた	-15427
這入	-15428
が一番	-15429
1946	-15430
サウルス	-15431
世界初の	-15432
HI	-15433
▁春	-15434
を企	-15435
差が	-15436
んだり	-15437
チョコ	-15438
相手が	-15439
100%	-15440
FS	-15441
カジ	-15442
旋回	-15443
みよう	-15444
一丁目	-15445
写真を	-15446
チャージ	-15447
人数	-15448
僕も	-15449
星野	-15450
洗礼	-15451
IDE	-15452
の登場	-15453
一時期	-15454
条約の	-15455
分らない	-15456
エンジンを	-15457
ユダヤ人の	-15458
オープンした	-15459
出血	-15460
石灰	-15461
重に	-15462
マジック	-15463
即位した	-15464
にそれぞれ	-15465
カルシウム	-15466
ることはなかった	-15467
消極	-15468
閲覧	-15469
点では	-15470
見られ	-15471
距離は	-15472
違った	-15473
からざる	-15474
伝統的に	-15475
考えていた	-15476
アルミニウム	-15477
Go	-15478
▁郡	-15479
壁の	-15480
輝く	-15481
驚き	-15482
に富	-15483
隻の	-15484
名前が	-15485
を結成し	-15486
は存在しない	-15487
すか	-15488
作動	-15489
推し	-15490
畠山	-15491
略奪	-15492
そこは	-15493
と共通	-15494
親しく	-15495
交響楽団	-15496
囲まれた	-15497
のであつた	-15498
適用される	-15499
こぼ	-15500
土砂	-15501
番目	-15502
鳥取県	-15503
apan	-15504
モバイル	-15505
地方公共	-15506
高い評価	-15507
物も	-15508
フロン	-15509
及んだ	-15510
詳しくは	-15511
az	-15512
山内	-15513
承諾	-15514
放出	-15515
柴田	-15516
ヘブライ	-15517
実質的な	-15518
平の	-15519
日付け	-15520
走した	-15521
かういふ	-15522
ファイト	-15523
に変更され	-15524
報じられた	-15525
ることが多く	-15526
として知られている	-15527
カビ	-15528
塩化	-15529
を巡る	-15530
傘下の	-15531
サヨナラ	-15532
ローマ帝国の	-15533
主権	-15534
増設	-15535
小牧	-15536
打点	-15537
頂点	-15538
区間が	-15539
の一つで	-15540
は不明である	-15541
大塚	-15542
の意思	-15543
生活は	-15544
が起こる	-15545
であろうか	-15546
じゃありませんか	-15547
ノキ	-15548
多岐	-15549
時も	-15550
に立って	-15551
ブレイク	-15552
位が	-15553
島田	-15554
決済	-15555
紀州	-15556
ook	-15557
▁アン	-15558
を構築	-15559
二人で	-15560
変わらず	-15561
こういった	-15562
楽の	-15563
現に	-15564
科学技術	-15565
を与えている	-15566
AI	-15567
失業	-15568
まえて	-15569
の間には	-15570
増加した	-15571
臨時列車	-15572
ッテ	-15573
御覧	-15574
線型	-15575
駕籠	-15576
の後に	-15577
人類の	-15578
代当主	-15579
なんとか	-15580
であるとして	-15581
平坦	-15582
能登	-15583
の	-15584
、	-15585
に	-15586
た	-15587
る	-15588
。	-15589
は	-15590
と	-15591
て	-15592
し	-15593
い	-15594
を	-15595
▁	-15596
で	-15597
が	-15598
な	-15599
ー	-15600
れ	-15601
ン	-15602
か	-15603
っ	-15604
1	-15605
ら	-15606
も	-15607
あ	-15608
り	-15609
こ	-15610
年	-15611
さ	-15612
0	-15613
す	-15614
う	-15615
2	-15616
ス	-15617
)	-15618
ま	-15619
(	-15620
ル	-15621
・	-15622
ト	-15623
よ	-15624
イ	-15625
.	-15626
く	-15627
「	-15628
」	-15629
リ	-15630
そ	-15631
9	-15632
ア	-15633
ラ	-15634
日	-15635
き	-15636
つ	-15637
ッ	-15638
め	-15639
大	-15640
人	-15641
ク	-15642
け	-15643
お	-15644
や	-15645
3	-15646
だ	-15647
ん	-15648
一	-15649
ど	-15650
ド	-15651
本	-15652
シ	-15653
月	-15654
タ	-15655
え	-15656
5	-15657
4	-15658
行	-15659
わ	-15660
中	-15661
8	-15662
ロ	-15663
国	-15664
フ	-15665
レ	-15666
時	-15667
出	-15668
6	-15669
カ	-15670
7	-15671
ジ	-15672
上	-15673
後	-15674
地	-15675
用	-15676
ム	-15677
学	-15678
テ	-15679
マ	-15680
ち	-15681
プ	-15682
合	-15683
的	-15684
生	-15685
バ	-15686
間	-15687
代	-15688
ば	-15689
ィ	-15690
コ	-15691
せ	-15692
部	-15693
発	-15694
場	-15695
グ	-15696
分	-15697
事	-15698
会	-15699
デ	-15700
者	-15701
へ	-15702
オ	-15703
同	-15704
作	-15705
e	-15706
『	-15707
』	-15708
み	-15709
メ	-15710
戦	-15711
子	-15712
方	-15713
ウ	-15714
自	-15715
成	-15716
見	-15717
名	-15718
チ	-15719
a	-15720
定	-15721
車	-15722
ニ	-15723
前	-15724
サ	-15725
じ	-15726
ナ	-15727
入	-15728
下	-15729
線	-15730
エ	-15731
ブ	-15732
内	-15733
道	-15734
ュ	-15735
動	-15736
手	-15737
長	-15738
ャ	-15739
高	-15740
通	-15741
ビ	-15742
キ	-15743
立	-15744
以	-15745
i	-15746
市	-15747
家	-15748
開	-15749
主	-15750
-	-15751
ず	-15752
当	-15753
物	-15754
o	-15755
対	-15756
東	-15757
体	-15758
パ	-15759
業	-15760
現	-15761
化	-15762
山	-15763
機	-15764
多	-15765
r	-15766
駅	-15767
ズ	-15768
A	-15769
新	-15770
ろ	-15771
所	-15772
t	-15773
S	-15774
ダ	-15775
来	-15776
n	-15777
第	-15778
世	-15779
社	-15780
設	-15781
関	-15782
び	-15783
在	-15784
度	-15785
C	-15786
数	-15787
全	-15788
法	-15789
田	-15790
最	-15791
ミ	-15792
目	-15793
性	-15794
小	-15795
力	-15796
実	-15797
ェ	-15798
表	-15799
言	-15800
m	-15801
理	-15802
軍	-15803
記	-15804
初	-15805
明	-15806
気	-15807
三	-15808
語	-15809
ハ	-15810
ほ	-15811
文	-15812
要	-15813
平	-15814
期	-15815
外	-15816
セ	-15817
二	-15818
川	-15819
ツ	-15820
和	-15821
連	-15822
政	-15823
ョ	-15824
s	-15825
ネ	-15826
モ	-15827
教	-15828
ベ	-15829
式	-15830
l	-15831
置	-15832
げ	-15833
送	-15834
形	-15835
面	-15836
I	-15837
海	-15838
使	-15839
ガ	-15840
画	-15841
放	-15842
T	-15843
位	-15844
特	-15845
女	-15846
持	-15847
制	-15848
神	-15849
北	-15850
公	-15851
野	-15852
M	-15853
水	-15854
運	-15855
取	-15856
番	-15857
民	-15858
島	-15859
組	-15860
結	-15861
ポ	-15862
原	-15863
書	-15864
心	-15865
正	-15866
知	-15867
県	-15868
電	-15869
ソ	-15870
受	-15871
品	-15872
々	-15873
経	-15874
意	-15875
べ	-15876
西	-15877
R	-15878
"	-15879
回	-15880
能	-15881
加	-15882
不	-15883
近	-15884
ノ	-15885
京	-15886
思	-15887
金	-15888
点	-15889
変	-15890
元	-15891
E	-15892
D	-15893
P	-15894
ボ	-15895
身	-15896
路	-15897
有	-15898
N	-15899
利	-15900
治	-15901
ピ	-15902
c	-15903
区	-15904
活	-15905
員	-15906
次	-15907
選	-15908
む	-15909
様	-15910
向	-15911
天	-15912
続	-15913
都	-15914
彼	-15915
空	-15916
B	-15917
指	-15918
O	-15919
ァ	-15920
義	-15921
ワ	-15922
際	-15923
号	-15924
重	-15925
相	-15926
無	-15927
流	-15928
町	-15929
口	-15930
ケ	-15931
ふ	-15932
勝	-15933
信	-15934
呼	-15935
ね	-15936
ギ	-15937
等	-15938
演	-15939
両	-15940
付	-15941
共	-15942
王	-15943
務	-15944
進	-15945
校	-15946
音	-15947
ひ	-15948
鉄	-15949
界	-15950
ホ	-15951
u	-15952
南	-15953
議	-15954
造	-15955
ヴ	-15956
始	-15957
交	-15958
少	-15959
系	-15960
F	-15961
改	-15962
他	-15963
得	-15964
産	-15965
存	-15966
直	-15967
解	-15968
別	-15969
売	-15970
決	-15971
何	-15972
説	-15973
ペ	-15974
約	-15975
計	-15976
型	-15977
十	-15978
終	-15979
台	-15980
話	-15981
先	-15982
権	-15983
保	-15984
引	-15985
種	-15986
集	-15987
基	-15988
屋	-15989
d	-15990
ご	-15991
考	-15992
ぶ	-15993
転	-15994
称	-15995
ゴ	-15996
任	-15997
可	-15998
側	-15999
構	-16000
団	-16001
木	-16002
古	-16003
状	-16004
ヤ	-16005
私	-16006
楽	-16007
降	-16008
工	-16009
ゲ	-16010
死	-16011
広	-16012
統	-16013
士	-16014
建	-16015
―	-16016
h	-16017
参	-16018
ザ	-16019
,	-16020
強	-16021
安	-16022
域	-16023
朝	-16024
備	-16025
今	-16026
州	-16027
起	-16028
乗	-16029
G	-16030
支	-16031
製	-16032
果	-16033
村	-16034
L	-16035
隊	-16036
移	-16037
石	-16038
由	-16039
問	-16040
常	-16041
命	-16042
論	-16043
再	-16044
着	-16045
止	-16046
半	-16047
反	-16048
伝	-16049
男	-16050
役	-16051
馬	-16052
優	-16053
:	-16054
p	-16055
類	-16056
光	-16057
配	-16058
太	-16059
調	-16060
列	-16061
土	-16062
H	-16063
登	-16064
府	-16065
色	-16066
例	-16067
g	-16068
格	-16069
題	-16070
球	-16071
編	-16072
撃	-16073
史	-16074
術	-16075
切	-16076
J	-16077
門	-16078
録	-16079
装	-16080
万	-16081
味	-16082
ォ	-16083
各	-16084
映	-16085
営	-16086
報	-16087
局	-16088
武	-16089
ぐ	-16090
ヒ	-16091
示	-16092
総	-16093
曲	-16094
白	-16095
院	-16096
判	-16097
急	-16098
戸	-16099
歴	-16100
城	-16101
料	-16102
頭	-16103
認	-16104
御	-16105
昭	-16106
字	-16107
応	-16108
打	-16109
官	-16110
属	-16111
V	-16112
!	-16113
収	-16114
族	-16115
食	-16116
過	-16117
兵	-16118
領	-16119
ょ	-16120
郎	-16121
葉	-16122
ぎ	-16123
量	-16124
達	-16125
条	-16126
規	-16127
歌	-16128
親	-16129
k	-16130
退	-16131
居	-16132
ゃ	-16133
紀	-16134
風	-16135
感	-16136
施	-16137
異	-16138
店	-16139
込	-16140
派	-16141
K	-16142
試	-16143
党	-16144
ざ	-16145
四	-16146
皇	-16147
速	-16148
科	-16149
影	-16150
住	-16151
観	-16152
足	-16153
氏	-16154
態	-16155
宮	-16156
賞	-16157
限	-16158
器	-16159
必	-16160
情	-16161
質	-16162
真	-16163
争	-16164
然	-16165
聞	-16166
係	-16167
更	-16168
版	-16169
美	-16170
離	-16171
残	-16172
継	-16173
述	-16174
ぬ	-16175
研	-16176
技	-16177
接	-16178
U	-16179
件	-16180
声	-16181
独	-16182
ユ	-16183
載	-16184
単	-16185
W	-16186
艦	-16187
母	-16188
落	-16189
五	-16190
周	-16191
含	-16192
管	-16193
父	-16194
松	-16195
井	-16196
確	-16197
づ	-16198
素	-16199
究	-16200
予	-16201
与	-16202
ゐ	-16203
ゆ	-16204
増	-16205
ヨ	-16206
/	-16207
導	-16208
育	-16209
帰	-16210
陸	-16211
及	-16212
云	-16213
館	-16214
挙	-16215
y	-16216
容	-16217
張	-16218
般	-16219
資	-16220
ぞ	-16221
岡	-16222
復	-16223
江	-16224
供	-16225
橋	-16226
星	-16227
良	-16228
程	-16229
ヘ	-16230
想	-16231
投	-16232
阪	-16233
仕	-16234
提	-16235
勢	-16236
師	-16237
寺	-16238
愛	-16239
比	-16240
米	-16241
旧	-16242
藤	-16243
響	-16244
害	-16245
客	-16246
帝	-16247
f	-16248
走	-16249
吉	-16250
室	-16251
船	-16252
頃	-16253
念	-16254
去	-16255
率	-16256
円	-16257
ぼ	-16258
非	-16259
火	-16260
夫	-16261
攻	-16262
夜	-16263
商	-16264
衛	-16265
準	-16266
断	-16267
価	-16268
令	-16269
園	-16270
失	-16271
飛	-16272
首	-16273
概	-16274
完	-16275
象	-16276
職	-16277
歳	-16278
従	-16279
福	-16280
座	-16281
細	-16282
b	-16283
展	-16284
験	-16285
河	-16286
防	-16287
千	-16288
好	-16289
末	-16290
評	-16291
将	-16292
八	-16293
追	-16294
済	-16295
英	-16296
違	-16297
航	-16298
協	-16299
消	-16300
郡	-16301
洋	-16302
君	-16303
査	-16304
根	-16305
競	-16306
谷	-16307
低	-16308
殺	-16309
図	-16310
青	-16311
視	-16312
難	-16313
横	-16314
廃	-16315
敗	-16316
助	-16317
担	-16318
告	-16319
処	-16320
差	-16321
渡	-16322
悪	-16323
守	-16324
監	-16325
花	-16326
採	-16327
帯	-16328
割	-16329
波	-16330
換	-16331
%	-16332
催	-16333
港	-16334
除	-16335
宗	-16336
ゼ	-16337
専	-16338
若	-16339
督	-16340
階	-16341
病	-16342
護	-16343
個	-16344
源	-16345
破	-16346
辺	-16347
返	-16348
極	-16349
藩	-16350
段	-16351
諸	-16352
劇	-16353
歩	-16354
黒	-16355
崎	-16356
司	-16357
求	-16358
早	-16359
案	-16360
級	-16361
修	-16362
了	-16363
赤	-16364
佐	-16365
境	-16366
深	-16367
顔	-16368
津	-16369
衆	-16370
積	-16371
左	-16372
右	-16373
芸	-16374
留	-16375
越	-16376
満	-16377
幕	-16378
検	-16379
就	-16380
整	-16381
伊	-16382
寄	-16383
省	-16384
銀	-16385
停	-16386
標	-16387
?	-16388
警	-16389
像	-16390
企	-16391
模	-16392
読	-16393
照	-16394
減	-16395
補	-16396
=	-16397
九	-16398
突	-16399
為	-16400
博	-16401
興	-16402
翌	-16403
久	-16404
温	-16405
略	-16406
臣	-16407
策	-16408
推	-16409
;	-16410
算	-16411
旅	-16412
圧	-16413
清	-16414
証	-16415
創	-16416
X	-16417
角	-16418
闘	-16419
央	-16420
委	-16421
端	-16422
遺	-16423
注	-16424
働	-16425
識	-16426
席	-16427
待	-16428
振	-16429
複	-16430
遠	-16431
効	-16432
六	-16433
材	-16434
街	-16435
望	-16436
紙	-16437
舞	-16438
介	-16439
[	-16440
伴	-16441
沢	-16442
]	-16443
築	-16444
織	-16445
負	-16446
著	-16447
環	-16448
医	-16449
徳	-16450
併	-16451
v	-16452
頼	-16453
林	-16454
毎	-16455
販	-16456
察	-16457
弟	-16458
春	-16459
徴	-16460
普	-16461
尾	-16462
富	-16463
精	-16464
板	-16465
描	-16466
宇	-16467
&	-16468
囲	-16469
輸	-16470
熱	-16471
乱	-16472
至	-16473
巻	-16474
ヌ	-16475
籍	-16476
許	-16477
浜	-16478
岸	-16479
姿	-16480
血	-16481
未	-16482
密	-16483
蔵	-16484
友	-16485
僕	-16486
因	-16487
値	-16488
革	-16489
百	-16490
志	-16491
射	-16492
並	-16493
短	-16494
植	-16495
養	-16496
永	-16497
拠	-16498
習	-16499
写	-16500
老	-16501
盛	-16502
故	-16503
延	-16504
聖	-16505
薬	-16506
況	-16507
労	-16508
草	-16509
弾	-16510
岩	-16511
絶	-16512
裁	-16513
w	-16514
覚	-16515
功	-16516
之	-16517
七	-16518
途	-16519
布	-16520
秋	-16521
景	-16522
具	-16523
扱	-16524
農	-16525
給	-16526
便	-16527
雑	-16528
婚	-16529
援	-16530
陽	-16531
|	-16532
森	-16533
承	-16534
替	-16535
眼	-16536
跡	-16537
節	-16538
鳥	-16539
典	-16540
甲	-16541
豊	-16542
息	-16543
丸	-16544
抗	-16545
余	-16546
財	-16547
泉	-16548
曜	-16549
候	-16550
倉	-16551
株	-16552
費	-16553
群	-16554
背	-16555
誌	-16556
超	-16557
秀	-16558
適	-16559
酸	-16560
我	-16561
宿	-16562
則	-16563
笑	-16564
刊	-16565
兄	-16566
休	-16567
申	-16568
児	-16569
Y	-16570
獲	-16571
散	-16572
測	-16573
ゝ	-16574
易	-16575
奏	-16576
其	-16577
雄	-16578
亡	-16579
服	-16580
占	-16581
被	-16582
砲	-16583
ゥ	-16584
盟	-16585
順	-16586
貴	-16587
軽	-16588
授	-16589
堂	-16590
激	-16591
章	-16592
苦	-16593
仏	-16594
敵	-16595
似	-16596
抜	-16597
拡	-16598
層	-16599
固	-16600
貨	-16601
玉	-16602
妻	-16603
掛	-16604
滅	-16605
壊	-16606
羽	-16607
賀	-16608
遊	-16609
項	-16610
暗	-16611
祭	-16612
脱	-16613
績	-16614
障	-16615
敷	-16616
舎	-16617
娘	-16618
沿	-16619
輪	-16620
訳	-16621
搭	-16622
捕	-16623
札	-16624
夏	-16625
怪	-16626
宅	-16627
罪	-16628
探	-16629
恐	-16630
幹	-16631
庫	-16632
印	-16633
卒	-16634
倒	-16635
戻	-16636
坂	-16637
如	-16638
湾	-16639
華	-16640
幅	-16641
爆	-16642
池	-16643
ぜ	-16644
折	-16645
刑	-16646
静	-16647
忠	-16648
躍	-16649
殿	-16650
ヶ	-16651
週	-16652
冷	-16653
療	-16654
逆	-16655
混	-16656
宣	-16657
均	-16658
買	-16659
宝	-16660
盤	-16661
詞	-16662
批	-16663
契	-16664
鮮	-16665
雪	-16666
閣	-16667
徒	-16668
此	-16669
訪	-16670
額	-16671
筆	-16672
談	-16673
互	-16674
逃	-16675
掲	-16676
邦	-16677
酒	-16678
焼	-16679
片	-16680
庁	-16681
講	-16682
仮	-16683
奈	-16684
律	-16685
康	-16686
魔	-16687
漫	-16688
険	-16689
駆	-16690
迎	-16691
奥	-16692
香	-16693
揮	-16694
昇	-16695
里	-16696
閉	-16697
襲	-16698
幸	-16699
絵	-16700
庭	-16701
執	-16702
禁	-16703
善	-16704
祖	-16705
操	-16706
危	-16707
郷	-16708
傷	-16709
肉	-16710
押	-16711
答	-16712
否	-16713
房	-16714
券	-16715
毛	-16716
茶	-16717
宙	-16718
底	-16719
討	-16720
漢	-16721
黄	-16722
聴	-16723
栄	-16724
x	-16725
刻	-16726
症	-16727
骨	-16728
隣	-16729
〜	-16730
税	-16731
請	-16732
較	-16733
誰	-16734
裏	-16735
ゾ	-16736
丁	-16737
ゅ	-16738
雲	-16739
弁	-16740
陣	-16741
脚	-16742
憲	-16743
既	-16744
樹	-16745
窓	-16746
枚	-16747
鹿	-16748
維	-16749
疑	-16750
喜	-16751
震	-16752
災	-16753
傾	-16754
練	-16755
雨	-16756
又	-16757
困	-16758
課	-16759
健	-16760
犯	-16761
縁	-16762
辞	-16763
染	-16764
露	-16765
浦	-16766
携	-16767
油	-16768
仲	-16769
魚	-16770
臨	-16771
唯	-16772
厳	-16773
圏	-16774
巡	-16775
兼	-16776
韓	-16777
範	-16778
距	-16779
竹	-16780
巨	-16781
審	-16782
塁	-16783
願	-16784
撮	-16785
避	-16786
詩	-16787
快	-16788
礼	-16789
欧	-16790
孫	-16791
献	-16792
納	-16793
弱	-16794
億	-16795
縮	-16796
瀬	-16797
湖	-16798
依	-16799
純	-16800
勤	-16801
核	-16802
隠	-16803
副	-16804
霊	-16805
奪	-16806
吸	-16807
払	-16808
即	-16809
伸	-16810
慶	-16811
銃	-16812
儀	-16813
欠	-16814
吹	-16815
壁	-16816
訴	-16817
沖	-16818
侵	-16819
那	-16820
致	-16821
到	-16822
免	-16823
踏	-16824
救	-16825
塩	-16826
遣	-16827
燃	-16828
岐	-16829
～	-16830
詳	-16831
唱	-16832
胞	-16833
締	-16834
釈	-16835
濃	-16836
撤	-16837
益	-16838
液	-16839
ぱ	-16840
阿	-16841
抱	-16842
皮	-16843
'	-16844
智	-16845
夢	-16846
覧	-16847
_	-16848
浮	-16849
冬	-16850
譲	-16851
虫	-16852
婦	-16853
損	-16854
触	-16855
崩	-16856
塚	-16857
鳴	-16858
秘	-16859
繰	-16860
飲	-16861
Z	-16862
仙	-16863
湯	-16864
没	-16865
軌	-16866
幼	-16867
床	-16868
暦	-16869
簡	-16870
砂	-16871
倍	-16872
融	-16873
針	-16874
枠	-16875
遅	-16876
寝	-16877
暴	-16878
夕	-16879
荷	-16880
摘	-16881
排	-16882
→	-16883
尊	-16884
z	-16885
繁	-16886
筋	-16887
午	-16888
幾	-16889
舗	-16890
仰	-16891
麻	-16892
紹	-16893
+	-16894
季	-16895
誘	-16896
束	-16897
熊	-16898
絡	-16899
薄	-16900
衣	-16901
仁	-16902
却	-16903
惑	-16904
己	-16905
綱	-16906
誕	-16907
矢	-16908
還	-16909
旗	-16910
架	-16911
微	-16912
俳	-16913
奇	-16914
充	-16915
摩	-16916
毒	-16917
票	-16918
腹	-16919
縄	-16920
炭	-16921
翼	-16922
誤	-16923
殊	-16924
恋	-16925
〵	-16926
姉	-16927
包	-16928
招	-16929
奴	-16930
妹	-16931
責	-16932
騎	-16933
浅	-16934
貫	-16935
刀	-16936
往	-16937
晩	-16938
奉	-16939
伏	-16940
荒	-16941
征	-16942
緒	-16943
厚	-16944
哲	-16945
鶴	-16946
潜	-16947
封	-16948
悲	-16949
杉	-16950
狭	-16951
沈	-16952
柄	-16953
威	-16954
灯	-16955
隆	-16956
痛	-16957
枝	-16958
龍	-16959
亜	-16960
暮	-16961
衝	-16962
胸	-16963
飾	-16964
芝	-16965
ぢ	-16966
妙	-16967
慮	-16968
塔	-16969
抑	-16970
齢	-16971
伯	-16972
緑	-16973
陰	-16974
択	-16975
冠	-16976
墓	-16977
迫	-16978
犬	-16979
〳	-16980
彦	-16981
來	-16982
鏡	-16983
煙	-16984
沼	-16985
附	-16986
驚	-16987
飯	-16988
腕	-16989
須	-16990
Q	-16991
干	-16992
牛	-16993
頂	-16994
磁	-16995
僧	-16996
脳	-16997
”	-16998
丘	-16999
恵	-17000
託	-17001
耳	-17002
箱	-17003
渉	-17004
敬	-17005
剣	-17006
双	-17007
稲	-17008
童	-17009
患	-17010
牧	-17011
脈	-17012
皆	-17013
訓	-17014
俗	-17015
潟	-17016
軸	-17017
刺	-17018
姫	-17019
駐	-17020
乳	-17021
塗	-17022
希	-17023
鎖	-17024
嫌	-17025
寛	-17026
竜	-17027
借	-17028
雷	-17029
握	-17030
姓	-17031
豪	-17032
詰	-17033
歯	-17034
序	-17035
葬	-17036
削	-17037
穴	-17038
菌	-17039
爵	-17040
慣	-17041
械	-17042
析	-17043
網	-17044
縦	-17045
紅	-17046
涯	-17047
句	-17048
“	-17049
弘	-17050
唐	-17051
埋	-17052
抵	-17053
裂	-17054
梅	-17055
獣	-17056
陥	-17057
岳	-17058
晴	-17059
迷	-17060
鈴	-17061
遂	-17062
鎌	-17063
賛	-17064
漁	-17065
※	-17066
謀	-17067
鉱	-17068
怒	-17069
勇	-17070
寒	-17071
廻	-17072
購	-17073
○	-17074
貢	-17075
才	-17076
鬼	-17077
茂	-17078
溶	-17079
俺	-17080
掘	-17081
玄	-17082
棄	-17083
剤	-17084
寿	-17085
或	-17086
×	-17087
輝	-17088
髪	-17089
丹	-17090
肩	-17091
騒	-17092
洗	-17093
廷	-17094
拝	-17095
堀	-17096
於	-17097
偵	-17098
貞	-17099
随	-17100
昔	-17101
忘	-17102
盗	-17103
柳	-17104
羅	-17105
署	-17106
柱	-17107
揚	-17108
氷	-17109
鎮	-17110
索	-17111
隔	-17112
桜	-17113
腰	-17114
浴	-17115
殖	-17116
緯	-17117
欲	-17118
昼	-17119
扉	-17120
滞	-17121
該	-17122
豆	-17123
拒	-17124
賃	-17125
耐	-17126
也	-17127
稿	-17128
炎	-17129
懸	-17130
幌	-17131
眠	-17132
募	-17133
珍	-17134
趣	-17135
泣	-17136
貧	-17137
誉	-17138
隻	-17139
径	-17140
弥	-17141
黙	-17142
坊	-17143
郵	-17144
泊	-17145
浪	-17146
摂	-17147
呉	-17148
届	-17149
銭	-17150
ぽ	-17151
呂	-17152
蒸	-17153
狂	-17154
貸	-17155
謝	-17156
透	-17157
亀	-17158
顕	-17159
棋	-17160
柔	-17161
荘	-17162
艇	-17163
潮	-17164
杯	-17165
渋	-17166
輩	-17167
祝	-17168
丈	-17169
糸	-17170
卵	-17171
捨	-17172
硬	-17173
袋	-17174
戒	-17175
俊	-17176
駒	-17177
債	-17178
吾	-17179
曹	-17180
尽	-17181
礎	-17182
秒	-17183
滑	-17184
僚	-17185
洲	-17186
勧	-17187
遇	-17188
培	-17189
尚	-17190
乾	-17191
看	-17192
旨	-17193
診	-17194
覇	-17195
郊	-17196
挑	-17197
斎	-17198
孝	-17199
肥	-17200
緊	-17201
傍	-17202
雇	-17203
轄	-17204
寸	-17205
覆	-17206
衰	-17207
鑑	-17208
緩	-17209
粉	-17210
顧	-17211
贈	-17212
徐	-17213
括	-17214
菊	-17215
譜	-17216
徹	-17217
旦	-17218
銅	-17219
鼻	-17220
裕	-17221
垣	-17222
翻	-17223
促	-17224
紫	-17225
麗	-17226
償	-17227
斜	-17228
棒	-17229
禄	-17230
懐	-17231
添	-17232
捜	-17233
繋	-17234
筒	-17235
畑	-17236
頻	-17237
籠	-17238
憶	-17239
叫	-17240
李	-17241
軒	-17242
粒	-17243
紋	-17244
逐	-17245
j	-17246
屈	-17247
ゞ	-17248
菱	-17249
邸	-17250
笠	-17251
偽	-17252
忍	-17253
#	-17254
〉	-17255
〈	-17256
獄	-17257
逸	-17258
彩	-17259
怖	-17260
尉	-17261
努	-17262
國	-17263
箇	-17264
栽	-17265
弦	-17266
撲	-17267
峰	-17268
垂	-17269
魂	-17270
汚	-17271
罰	-17272
熟	-17273
紛	-17274
享	-17275
旬	-17276
浄	-17277
悟	-17278
糖	-17279
埼	-17280
是	-17281
帳	-17282
偶	-17283
薩	-17284
陵	-17285
淡	-17286
臓	-17287
恒	-17288
貿	-17289
巣	-17290
脂	-17291
鋼	-17292
侯	-17293
狙	-17294
踊	-17295
擁	-17296
塞	-17297
刷	-17298
誠	-17299
誇	-17300
符	-17301
洞	-17302
需	-17303
斉	-17304
冒	-17305
劉	-17306
飼	-17307
嘉	-17308
昌	-17309
恩	-17310
劣	-17311
涙	-17312
庄	-17313
狩	-17314
掌	-17315
氣	-17316
瞬	-17317
灰	-17318
菜	-17319
遷	-17320
筑	-17321
脇	-17322
賢	-17323
駄	-17324
晶	-17325
暖	-17326
尋	-17327
逮	-17328
磨	-17329
戯	-17330
拓	-17331
昨	-17332
澤	-17333
噴	-17334
預	-17335
泰	-17336
膜	-17337
虎	-17338
傘	-17339
幡	-17340
甘	-17341
暫	-17342
滝	-17343
匠	-17344
穂	-17345
叙	-17346
旋	-17347
辛	-17348
幣	-17349
喫	-17350
勲	-17351
堅	-17352
悩	-17353
賊	-17354
尺	-17355
措	-17356
隅	-17357
貰	-17358
挟	-17359
烈	-17360
邪	-17361
叔	-17362
碑	-17363
ぷ	-17364
峡	-17365
后	-17366
\	-17367
雅	-17368
葛	-17369
媒	-17370
卿	-17371
召	-17372
幽	-17373
亭	-17374
侍	-17375
栗	-17376
稼	-17377
桂	-17378
祈	-17379
伐	-17380
揺	-17381
夷	-17382
偏	-17383
桃	-17384
甚	-17385
祥	-17386
奨	-17387
°	-17388
卓	-17389
梁	-17390
冊	-17391
披	-17392
*	-17393
芳	-17394
函	-17395
勅	-17396
眺	-17397
釣	-17398
阜	-17399
蘭	-17400
控	-17401
壇	-17402
殆	-17403
舟	-17404
幻	-17405
麦	-17406
湿	-17407
剛	-17408
疾	-17409
浸	-17410
敏	-17411
猛	-17412
咲	-17413
鋭	-17414
酷	-17415
慢	-17416
峠	-17417
筈	-17418
拳	-17419
燈	-17420
蓮	-17421
梨	-17422
珠	-17423
闇	-17424
酔	-17425
弓	-17426
膝	-17427
蒲	-17428
猫	-17429
蘇	-17430
畿	-17431
腐	-17432
塾	-17433
銘	-17434
挿	-17435
捉	-17436
勿	-17437
勘	-17438
陳	-17439
彫	-17440
尻	-17441
泥	-17442
阻	-17443
婆	-17444
猿	-17445
叩	-17446
畳	-17447
揃	-17448
隷	-17449
乏	-17450
崇	-17451
疲	-17452
宰	-17453
孤	-17454
吐	-17455
尼	-17456
励	-17457
沙	-17458
虚	-17459
朱	-17460
脅	-17461
澄	-17462
噂	-17463
蛇	-17464
帆	-17465
軟	-17466
哀	-17467
拘	-17468
鍵	-17469
遭	-17470
斬	-17471
勃	-17472
彰	-17473
汽	-17474
駿	-17475
帽	-17476
斯	-17477
坐	-17478
曽	-17479
蓄	-17480
學	-17481
凡	-17482
寧	-17483
q	-17484
桁	-17485
炉	-17486
衡	-17487
酵	-17488
貯	-17489
訟	-17490
棟	-17491
貝	-17492
蓋	-17493
寂	-17494
霧	-17495
履	-17496
樣	-17497
孔	-17498
鷹	-17499
抽	-17500
墳	-17501
廊	-17502
訊	-17503
菓	-17504
虐	-17505
雀	-17506
宜	-17507
胴	-17508
旭	-17509
盆	-17510
ぴ	-17511
謡	-17512
膨	-17513
勉	-17514
椅	-17515
掃	-17516
泳	-17517
粋	-17518
祀	-17519
妃	-17520
妖	-17521
秩	-17522
巧	-17523
薦	-17524
宋	-17525
逢	-17526
桑	-17527
嫁	-17528
拍	-17529
芽	-17530
ヲ	-17531
臭	-17532
乃	-17533
禅	-17534
腸	-17535
偉	-17536
溝	-17537
堤	-17538
這	-17539
浩	-17540
盾	-17541
袖	-17542
僅	-17543
但	-17544
斐	-17545
慎	-17546
舌	-17547
匹	-17548
朗	-17549
耕	-17550
殻	-17551
茨	-17552
奮	-17553
魅	-17554
犠	-17555
啓	-17556
惜	-17557
肝	-17558
墜	-17559
辰	-17560
瓦	-17561
据	-17562
慰	-17563
拾	-17564
實	-17565
陶	-17566
磐	-17567
播	-17568
牽	-17569
歓	-17570
骸	-17571
棚	-17572
恥	-17573
呪	-17574
嫡	-17575
閥	-17576
呈	-17577
妨	-17578
堪	-17579
憎	-17580
篇	-17581
凍	-17582
稀	-17583
輔	-17584
牲	-17585
畜	-17586
綿	-17587
肺	-17588
扇	-17589
乙	-17590
讃	-17591
赴	-17592
忌	-17593
胆	-17594
硫	-17595
倫	-17596
〇	-17597
而	-17598
稽	-17599
庶	-17600
剰	-17601
琴	-17602
蜂	-17603
搬	-17604
晋	-17605
謂	-17606
克	-17607
慈	-17608
煮	-17609
疎	-17610
枕	-17611
隙	-17612
牡	-17613
凝	-17614
涼	-17615
敢	-17616
鉛	-17617
喰	-17618
嶋	-17619
鼓	-17620
柴	-17621
鐘	-17622
祉	-17623
粘	-17624
循	-17625
洪	-17626
枢	-17627
焦	-17628
靴	-17629
枯	-17630
猟	-17631
昆	-17632
稚	-17633
燥	-17634
尿	-17635
滋	-17636
錦	-17637
惨	-17638
繊	-17639
魏	-17640
烏	-17641
暇	-17642
窟	-17643
倭	-17644
栃	-17645
壮	-17646
誓	-17647
辻	-17648
眞	-17649
笛	-17650
嘆	-17651
篠	-17652
祐	-17653
肢	-17654
妾	-17655
朽	-17656
秦	-17657
絞	-17658
宛	-17659
椎	-17660
釜	-17661
跨	-17662
菅	-17663
處	-17664
寮	-17665
喪	-17666
兆	-17667
班	-17668
猪	-17669
嵐	-17670
柏	-17671
鉢	-17672
唄	-17673
郭	-17674
瓶	-17675
潤	-17676
羊	-17677
穏	-17678
訂	-17679
裸	-17680
宏	-17681
漏	-17682
窮	-17683
剥	-17684
嬢	-17685
挨	-17686
拶	-17687
舶	-17688
唆	-17689
鶏	-17690
謎	-17691
隈	-17692
堺	-17693
蒙	-17694
悔	-17695
汁	-17696
萩	-17697
渓	-17698
斗	-17699
瑞	-17700
洛	-17701
愚	-17702
淵	-17703
刃	-17704
墨	-17705
虜	-17706
粛	-17707
謙	-17708
癖	-17709
暑	-17710
藻	-17711
麓	-17712
曾	-17713
貌	-17714
茎	-17715
欄	-17716
纂	-17717
漠	-17718
湧	-17719
諾	-17720
蹴	-17721
遮	-17722
菩	-17723
頬	-17724
勾	-17725
媛	-17726
膚	-17727
砕	-17728
癌	-17729
矛	-17730
蒼	-17731
當	-17732
縛	-17733
戴	-17734
竣	-17735
憂	-17736
賜	-17737
磯	-17738
唇	-17739
貼	-17740
覗	-17741
胡	-17742
妊	-17743
{	-17744
卑	-17745
腫	-17746
琉	-17747
庵	-17748
乞	-17749
槍	-17750
髄	-17751
机	-17752
曰	-17753
零	-17754
鴨	-17755
馴	-17756
鍋	-17757
紳	-17758
嗣	-17759
□	-17760
嬉	-17761
爺	-17762
擬	-17763
餌	-17764
伎	-17765
遍	-17766
錯	-17767
喧	-17768
會	-17769
跳	-17770
苗	-17771
疫	-17772
肪	-17773
雌	-17774
漂	-17775
猶	-17776
頓	-17777
践	-17778
凄	-17779
溜	-17780
玩	-17781
狼	-17782
飽	-17783
把	-17784
吊	-17785
糧	-17786
嘘	-17787
駈	-17788
崖	-17789
淀	-17790
頑	-17791
綾	-17792
汗	-17793
é	-17794
翁	-17795
帥	-17796
絹	-17797
恨	-17798
傑	-17799
桐	-17800
壌	-17801
叱	-17802
肌	-17803
兎	-17804
▲	-17805
倣	-17806
擦	-17807
–	-17808
敦	-17809
鋳	-17810
賭	-17811
儒	-17812
掴	-17813
亮	-17814
詣	-17815
痕	-17816
蔭	-17817
塊	-17818
宴	-17819
璃	-17820
懲	-17821
陀	-17822
睡	-17823
忙	-17824
潔	-17825
累	-17826
蝶	-17827
閑	-17828
諏	-17829
鳩	-17830
爪	-17831
粗	-17832
瑠	-17833
塵	-17834
穀	-17835
雰	-17836
畠	-17837
爲	-17838
潰	-17839
汝	-17840
鍛	-17841
刈	-17842
棲	-17843
詠	-17844
賠	-17845
呑	-17846
翔	-17847
褐	-17848
應	-17849
狐	-17850
慌	-17851
條	-17852
俵	-17853
遡	-17854
杖	-17855
脊	-17856
皿	-17857
淳	-17858
准	-17859
眉	-17860
股	-17861
硝	-17862
厭	-17863
汎	-17864
簿	-17865
漸	-17866
甥	-17867
粧	-17868
妥	-17869
漬	-17870
豚	-17871
綴	-17872
縫	-17873
舷	-17874
聲	-17875
屯	-17876
喚	-17877
碁	-17878
匂	-17879
囚	-17880
憤	-17881
迄	-17882
△	-17883
篤	-17884
牌	-17885
醐	-17886
閲	-17887
胎	-17888
醍	-17889
楼	-17890
對	-17891
缶	-17892
顎	-17893
樽	-17894
顏	-17895
趙	-17896
拭	-17897
胃	-17898
蝦	-17899
廉	-17900
只	-17901
礁	-17902
肯	-17903
盲	-17904
撰	-17905
掻	-17906
噛	-17907
藝	-17908
弧	-17909
戚	-17910
恭	-17911
汲	-17912
昧	-17913
渠	-17914
☆	-17915
裾	-17916
《	-17917
頸	-17918
吏	-17919
》	-17920
坪	-17921
慕	-17922
倶	-17923
窒	-17924
辱	-17925
萬	-17926
岬	-17927
牝	-17928
嶺	-17929
遥	-17930
賑	-17931
發	-17932
ゑ	-17933
α	-17934
佳	-17935
嘩	-17936
芥	-17937
朴	-17938
餅	-17939
哉	-17940
燕	-17941
馳	-17942
尖	-17943
忽	-17944
肖	-17945
藍	-17946
諭	-17947
喉	-17948
錬	-17949
亦	-17950
樺	-17951
汰	-17952
癒	-17953
坑	-17954
姻	-17955
爾	-17956
撫	-17957
飢	-17958
鳳	-17959
ぺ	-17960
堆	-17961
莫	-17962
迦	-17963
悦	-17964
楊	-17965
橘	-17966
捧	-17967
鞭	-17968
厩	-17969
鯨	-17970
侶	-17971
體	-17972
挫	-17973
曳	-17974
臼	-17975
濁	-17976
彗	-17977
鼠	-17978
韻	-17979
鬱	-17980
泡	-17981
醒	-17982
綻	-17983
楠	-17984
梶	-17985
胤	-17986
芦	-17987
扶	-17988
豹	-17989
酬	-17990
悼	-17991
諦	-17992
ヂ	-17993
沸	-17994
欺	-17995
}	-17996
褒	-17997
袁	-17998
赦	-17999
騰	-18000
曇	-18001
牙	-18002
穫	-18003
笹	-18004
婿	-18005
奔	-18006
妓	-18007
懇	-18008
鞍	-18009
辿	-18010
睦	-18011
遼	-18012
悠	-18013
凶	-18014
憧	-18015
麺	-18016
歸	-18017
渦	-18018
叡	-18019
纏	-18020
霞	-18021
醸	-18022
愉	-18023
娠	-18024
填	-18025
窪	-18026
輌	-18027
靖	-18028
濡	-18029
恰	-18030
窺	-18031
槻	-18032
逝	-18033
紐	-18034
暁	-18035
槽	-18036
巴	-18037
膳	-18038
蔑	-18039
襟	-18040
揆	-18041
霜	-18042
湘	-18043
蔣	-18044
嚢	-18045
租	-18046
斑	-18047
湊	-18048
且	-18049
俣	-18050
讐	-18051
駕	-18052
詮	-18053
腺	-18054
俸	-18055
洩	-18056
尤	-18057
醜	-18058
仔	-18059
抄	-18060
遽	-18061
廣	-18062
冥	-18063
某	-18064
拙	-18065
呆	-18066
迂	-18067
綺	-18068
〔	-18069
伽	-18070
鐵	-18071
〕	-18072
萌	-18073
泌	-18074
塀	-18075
祇	-18076
惹	-18077
擢	-18078
蜜	-18079
喋	-18080
睨	-18081
棺	-18082
諱	-18083
丞	-18084
冗	-18085
−	-18086
餓	-18087
狗	-18088
柿	-18089
薫	-18090
娯	-18091
嶽	-18092
茅	-18093
凌	-18094
圓	-18095
挺	-18096
怠	-18097
弊	-18098
酢	-18099
抹	-18100
庇	-18101
畔	-18102
曖	-18103
灘	-18104
傳	-18105
腎	-18106
訣	-18107
嘗	-18108
鷲	-18109
獅	-18110
滴	-18111
溢	-18112
牢	-18113
蛮	-18114
灌	-18115
賄	-18116
廟	-18117
圭	-18118
ヵ	-18119
牟	-18120
錠	-18121
煩	-18122
數	-18123
耶	-18124
閏	-18125
鈍	-18126
蛍	-18127
經	-18128
柵	-18129
【	-18130
蔽	-18131
】	-18132
琵	-18133
櫓	-18134
琶	-18135
蝋	-18136
惚	-18137
焉	-18138
壺	-18139
β	-18140
儲	-18141
ā	-18142
頁	-18143
聘	-18144
惣	-18145
痩	-18146
儘	-18147
虹	-18148
仇	-18149
怨	-18150
詔	-18151
腔	-18152
罵	-18153
杜	-18154
耗	-18155
裔	-18156
禍	-18157
匿	-18158
凱	-18159
哺	-18160
關	-18161
晃	-18162
伺	-18163
桶	-18164
哨	-18165
苑	-18166
醤	-18167
Ζ	-18168
楕	-18169
殴	-18170
痴	-18171
瞳	-18172
瘍	-18173
炊	-18174
穿	-18175
漆	-18176
捻	-18177
拉	-18178
餘	-18179
鱗	-18180
艶	-18181
剖	-18182
巾	-18183
砦	-18184
渕	-18185
采	-18186
祷	-18187
叶	-18188
歪	-18189
摺	-18190
冶	-18191
栖	-18192
瓜	-18193
焚	-18194
憩	-18195
瞭	-18196
惡	-18197
惧	-18198
淋	-18199
濫	-18200
雛	-18201
詐	-18202
ヽ	-18203
楚	-18204
亘	-18205
箕	-18206
迅	-18207
峯	-18208
董	-18209
糞	-18210
輿	-18211
銚	-18212
舵	-18213
桓	-18214
燭	-18215
俯	-18216
噌	-18217
憑	-18218
惟	-18219
★	-18220
侮	-18221
斥	-18222
堕	-18223
縣	-18224
呟	-18225
聯	-18226
殉	-18227
吟	-18228
毅	-18229
紺	-18230
姦	-18231
釧	-18232
脆	-18233
梗	-18234
肘	-18235
彙	-18236
憐	-18237
謹	-18238
喩	-18239
咽	-18240
謳	-18241
藪	-18242
〴	-18243
變	-18244
朋	-18245
讀	-18246
痺	-18247
嗜	-18248
蜀	-18249
嘲	-18250
弄	-18251
叉	-18252
坦	-18253
芋	-18254
妬	-18255
聡	-18256
厄	-18257
巌	-18258
寵	-18259
欽	-18260
檀	-18261
蟹	-18262
串	-18263
屍	-18264
荻	-18265
扮	-18266
隼	-18267
慾	-18268
俄	-18269
覺	-18270
渇	-18271
梯	-18272
寅	-18273
巳	-18274
伍	-18275
袴	-18276
μ	-18277
邑	-18278
鎧	-18279
巫	-18280
蹟	-18281
遁	-18282
慧	-18283
粟	-18284
錐	-18285
悉	-18286
汐	-18287
榎	-18288
妄	-18289
峨	-18290
煽	-18291
髭	-18292
樋	-18293
鄭	-18294
廠	-18295
蚊	-18296
悶	-18297
薪	-18298
椿	-18299
煉	-18300
賦	-18301
縞	-18302
拐	-18303
糾	-18304
堰	-18305
譚	-18306
黎	-18307
雁	-18308
紡	-18309
慨	-18310
溺	-18311
騨	-18312
樂	-18313
檜	-18314
怯	-18315
嫉	-18316
註	-18317
卸	-18318
罷	-18319
苔	-18320
鵜	-18321
ぁ	-18322
苛	-18323
宵	-18324
裳	-18325
穢	-18326
喝	-18327
麿	-18328
梢	-18329
薇	-18330
綬	-18331
戊	-18332
與	-18333
濱	-18334
薔	-18335
嘱	-18336
嵯	-18337
─	-18338
躊	-18339
煎	-18340
裡	-18341
攘	-18342
漕	-18343
罹	-18344
釘	-18345
箸	-18346
瀧	-18347
峙	-18348
桟	-18349
蔓	-18350
戰	-18351
躇	-18352
昂	-18353
矩	-18354
櫻	-18355
稜	-18356
臥	-18357
榴	-18358
魯	-18359
栓	-18360
叢	-18361
壬	-18362
杵	-18363
櫛	-18364
〻	-18365
遙	-18366
剃	-18367
晒	-18368
杏	-18369
升	-18370
乍	-18371
邊	-18372
弔	-18373
吻	-18374
蕎	-18375
鵬	-18376
賤	-18377
廓	-18378
碧	-18379
袂	-18380
閃	-18381
臆	-18382
揉	-18383
從	-18384
些	-18385
壕	-18386
窯	-18387
襖	-18388
刹	-18389
藁	-18390
麹	-18391
套	-18392
揶	-18393
揄	-18394
觀	-18395
凹	-18396
螺	-18397
寡	-18398
殘	-18399
啼	-18400
屏	-18401
囁	-18402
堵	-18403
ヅ	-18404
孟	-18405
傭	-18406
賓	-18407
兜	-18408
繕	-18409
葺	-18410
乘	-18411
陪	-18412
愕	-18413
晦	-18414
盃	-18415
點	-18416
轟	-18417
蹄	-18418
濯	-18419
杭	-18420
畏	-18421
拵	-18422
諮	-18423
筐	-18424
謁	-18425
胚	-18426
峻	-18427
鰭	-18428
麟	-18429
做	-18430
訛	-18431
洒	-18432
蛙	-18433
隋	-18434
團	-18435
咎	-18436
庸	-18437
兩	-18438
拗	-18439
瞑	-18440
璧	-18441
曝	-18442
獨	-18443
凸	-18444
蘆	-18445
饉	-18446
昏	-18447
遜	-18448
葦	-18449
冴	-18450
鸞	-18451
愁	-18452
挽	-18453
嗅	-18454
搾	-18455
諫	-18456
拷	-18457
愈	-18458
楯	-18459
耽	-18460
ü	-18461
毘	-18462
祠	-18463
顫	-18464
佛	-18465
碗	-18466
焔	-18467
輛	-18468
已	-18469
諡	-18470
薙	-18471
熙	-18472
矮	-18473
翅	-18474
毀	-18475
陛	-18476
蛛	-18477
慄	-18478
按	-18479
蚕	-18480
~	-18481
囃	-18482
嵩	-18483
鴻	-18484
壱	-18485
款	-18486
撒	-18487
賣	-18488
禰	-18489
餐	-18490
垢	-18491
扁	-18492
卯	-18493
蜘	-18494
奄	-18495
歎	-18496
鞘	-18497
卷	-18498
屑	-18499
>	-18500
帖	-18501
衞	-18502
鷺	-18503
狸	-18504
窃	-18505
酌	-18506
姪	-18507
梓	-18508
樫	-18509
嘴	-18510
騙	-18511
唾	-18512
捲	-18513
嚇	-18514
廿	-18515
鯉	-18516
髯	-18517
爽	-18518
膏	-18519
贅	-18520
頗	-18521
叛	-18522
竿	-18523
蕃	-18524
茫	-18525
ا	-18526
寇	-18527
臺	-18528
續	-18529
盧	-18530
葡	-18531
芯	-18532
茲	-18533
諜	-18534
眩	-18535
舘	-18536
憾	-18537
漑	-18538
皺	-18539
厨	-18540
孵	-18541
詫	-18542
聚	-18543
萎	-18544
娼	-18545
畫	-18546
斧	-18547
緻	-18548
奢	-18549
槌	-18550
寢	-18551
譯	-18552
朔	-18553
湛	-18554
葵	-18555
●	-18556
靜	-18557
卜	-18558
絆	-18559
尹	-18560
擲	-18561
蟻	-18562
膠	-18563
誅	-18564
侠	-18565
憚	-18566
鮎	-18567
榜	-18568
<	-18569
丼	-18570
兒	-18571
埃	-18572
埠	-18573
氾	-18574
蠅	-18575
曼	-18576
咳	-18577
ぇ	-18578
屹	-18579
弐	-18580
蒔	-18581
遵	-18582
簾	-18583
棘	-18584
吃	-18585
蕉	-18586
掠	-18587
皐	-18588
羨	-18589
◯	-18590
魁	-18591
礫	-18592
踪	-18593
喬	-18594
掩	-18595
殷	-18596
‐	-18597
á	-18598
奧	-18599
淫	-18600
畝	-18601
竟	-18602
†	-18603
聽	-18604
鍾	-18605
豫	-18606
飴	-18607
苫	-18608
彌	-18609
荊	-18610
丙	-18611
竪	-18612
矯	-18613
禮	-18614
姥	-18615
鋒	-18616
允	-18617
梵	-18618
淑	-18619
鞄	-18620
靡	-18621
瀕	-18622
于	-18623
彷	-18624
朧	-18625
媚	-18626
嶼	-18627
痘	-18628
萄	-18629
疇	-18630
轢	-18631
隘	-18632
證	-18633
芭	-18634
逗	-18635
渤	-18636
傀	-18637
渾	-18638
祓	-18639
斷	-18640
聳	-18641
虞	-18642
滿	-18643
曙	-18644
縋	-18645
儡	-18646
’	-18647
乎	-18648
宕	-18649
諧	-18650
喘	-18651
薨	-18652
紗	-18653
徽	-18654
濠	-18655
鋏	-18656
煤	-18657
藏	-18658
嵌	-18659
撥	-18660
痢	-18661
緋	-18662
襄	-18663
咄	-18664
誦	-18665
堯	-18666
屠	-18667
畢	-18668
爛	-18669
裟	-18670
佇	-18671
逼	-18672
靈	-18673
綜	-18674
咸	-18675
雜	-18676
權	-18677
頷	-18678
^	-18679
戟	-18680
炒	-18681
蓬	-18682
祟	-18683
吠	-18684
茹	-18685
柑	-18686
榛	-18687
宍	-18688
錫	-18689
蝕	-18690
娶	-18691
躯	-18692
珂	-18693
爬	-18694
閤	-18695
檻	-18696
衷	-18697
圃	-18698
姑	-18699
寓	-18700
郁	-18701
崗	-18702
泄	-18703
逓	-18704
橿	-18705
冨	-18706
竈	-18707
嬰	-18708
旺	-18709
匈	-18710
傲	-18711
蕩	-18712
靭	-18713
婢	-18714
揖	-18715
煕	-18716
飜	-18717
鉾	-18718
墾	-18719
將	-18720
翠	-18721
饗	-18722
惠	-18723
袈	-18724
呻	-18725
榊	-18726
髷	-18727
斡	-18728
甫	-18729
梱	-18730
脛	-18731
貪	-18732
捷	-18733
ä	-18734
衙	-18735
ö	-18736
稔	-18737
兇	-18738
賈	-18739
輕	-18740
蛋	-18741
@	-18742
ī	-18743
暢	-18744
爭	-18745
埴	-18746
痙	-18747
$	-18748
亥	-18749
唸	-18750
欣	-18751
攣	-18752
參	-18753
蕭	-18754
雖	-18755
亨	-18756
譬	-18757
隕	-18758
罠	-18759
渚	-18760
肋	-18761
稱	-18762
淘	-18763
酎	-18764
禿	-18765
號	-18766
托	-18767
軋	-18768
絨	-18769
禽	-18770
荼	-18771
劫	-18772
冑	-18773
窩	-18774
嗚	-18775
鹸	-18776
噺	-18777
圖	-18778
粕	-18779
輯	-18780
顛	-18781
迭	-18782
隨	-18783
а	-18784
錆	-18785
疏	-18786
稍	-18787
熾	-18788
癪	-18789
隱	-18790
璽	-18791
髮	-18792
箪	-18793
疹	-18794
髙	-18795
勒	-18796
汪	-18797
虔	-18798
颯	-18799
捗	-18800
鄧	-18801
殲	-18802
毫	-18803
狽	-18804
墟	-18805
宦	-18806
捏	-18807
邇	-18808
冪	-18809
劾	-18810
倹	-18811
嗟	-18812
弛	-18813
橙	-18814
盡	-18815
萱	-18816
耆	-18817
偲	-18818
驗	-18819
荀	-18820
蔦	-18821
楢	-18822
瘤	-18823
鋸	-18824
ぃ	-18825
佑	-18826
狛	-18827
檎	-18828
跋	-18829
宥	-18830
珊	-18831
庚	-18832
弼	-18833
茸	-18834
逞	-18835
燻	-18836
腿	-18837
屡	-18838
丑	-18839
飮	-18840
濟	-18841
雫	-18842
灸	-18843
﨑	-18844
γ	-18845
舜	-18846
沃	-18847
渥	-18848
擾	-18849
贋	-18850
ヱ	-18851
蒐	-18852
轉	-18853
漱	-18854
仄	-18855
姜	-18856
頒	-18857
唖	-18858
鰓	-18859
雍	-18860
甕	-18861
頤	-18862
涌	-18863
謬	-18864
擧	-18865
玲	-18866
倦	-18867
腱	-18868
鉤	-18869
鍼	-18870
桔	-18871
賂	-18872
戀	-18873
蔡	-18874
σ	-18875
竺	-18876
篭	-18877
禎	-18878
糊	-18879
糠	-18880
懺	-18881
莢	-18882
鳶	-18883
靄	-18884
鞠	-18885
帶	-18886
鴎	-18887
о	-18888
鮫	-18889
掟	-18890
疋	-18891
箔	-18892
齋	-18893
崔	-18894
瞼	-18895
鰻	-18896
鼎	-18897
巷	-18898
瑚	-18899
稙	-18900
燐	-18901
碓	-18902
嘔	-18903
濤	-18904
鍬	-18905
溥	-18906
拔	-18907
脩	-18908
嬌	-18909
站	-18910
鶯	-18911
夭	-18912
抒	-18913
佩	-18914
椀	-18915
匡	-18916
莽	-18917
瓢	-18918
厘	-18919
圍	-18920
燒	-18921
饒	-18922
單	-18923
ヰ	-18924
贄	-18925
亂	-18926
ó	-18927
翳	-18928
ل	-18929
壽	-18930
晝	-18931
烟	-18932
漿	-18933
酪	-18934
槓	-18935
莞	-18936
砥	-18937
捌	-18938
疵	-18939
𢌞	-18940
蝠	-18941
犀	-18942
è	-18943
瓊	-18944
肛	-18945
疆	-18946
辷	-18947
勞	-18948
蝙	-18949
咬	-18950
恁	-18951
沫	-18952
讒	-18953
π	-18954
閘	-18955
槃	-18956
粥	-18957
總	-18958
諺	-18959
緬	-18960
鞋	-18961
辣	-18962
鴉	-18963
櫃	-18964
涅	-18965
璋	-18966
訃	-18967
鹵	-18968
硯	-18969
艘	-18970
鰐	-18971
耀	-18972
沌	-18973
祚	-18974
肴	-18975
椒	-18976
藉	-18977
楓	-18978
錘	-18979
í	-18980
寫	-18981
腑	-18982
芹	-18983
弩	-18984
懿	-18985
饅	-18986
ū	-18987
彬	-18988
芒	-18989
蟲	-18990
·	-18991
刎	-18992
抛	-18993
繍	-18994
沁	-18995
瑜	-18996
瀑	-18997
醉	-18998
嚆	-18999
炸	-19000
芙	-19001
榮	-19002
聊	-19003
麒	-19004
濾	-19005
闊	-19006
笥	-19007
淮	-19008
馨	-19009
仆	-19010
葱	-19011
巖	-19012
柚	-19013
戮	-19014
卦	-19015
塑	-19016
贔	-19017
′	-19018
棹	-19019
踵	-19020
恣	-19021
赫	-19022
玖	-19023
雉	-19024
俥	-19025
釋	-19026
凰	-19027
酉	-19028
膵	-19029
±	-19030
圀	-19031
肇	-19032
珪	-19033
и	-19034
淺	-19035
鯖	-19036
—	-19037
梟	-19038
凧	-19039
碌	-19040
假	-19041
恍	-19042
苅	-19043
畷	-19044
牒	-19045
懷	-19046
楔	-19047
琢	-19048
臍	-19049
拿	-19050
冤	-19051
几	-19052
攀	-19053
煌	-19054
址	-19055
囘	-19056
沓	-19057
羞	-19058
輻	-19059
堡	-19060
駁	-19061
λ	-19062
據	-19063
亢	-19064
呶	-19065
鯛	-19066
н	-19067
惰	-19068
夥	-19069
箒	-19070
螢	-19071
酋	-19072
箋	-19073
餡	-19074
乖	-19075
缺	-19076
舍	-19077
默	-19078
浚	-19079
蛭	-19080
麽	-19081
ω	-19082
匁	-19083
攫	-19084
傅	-19085
鬚	-19086
猥	-19087
厥	-19088
屓	-19089
僑	-19090
廬	-19091
蓑	-19092
觸	-19093
恢	-19094
姐	-19095
丕	-19096
瞰	-19097
肱	-19098
袢	-19099
舊	-19100
荏	-19101
ن	-19102
秤	-19103
錢	-19104
徨	-19105
趾	-19106
鍮	-19107
錨	-19108
蝉	-19109
斃	-19110
浙	-19111
訝	-19112
憫	-19113
蟄	-19114
蟇	-19115
‰	-19116
摸	-19117
嚴	-19118
斤	-19119
瞞	-19120
顆	-19121
釉	-19122
Ø	-19123
阮	-19124
繪	-19125
褄	-19126
媼	-19127
尠	-19128
粂	-19129
韮	-19130
朦	-19131
絃	-19132
е	-19133
亞	-19134
帷	-19135
幇	-19136
膿	-19137
塹	-19138
磔	-19139
蓉	-19140
倚	-19141
佃	-19142
瘡	-19143
紆	-19144
碍	-19145
韋	-19146
拮	-19147
旛	-19148
游	-19149
轍	-19150
繩	-19151
僻	-19152
彿	-19153
鑿	-19154
ε	-19155
━	-19156
墺	-19157
竄	-19158
襦	-19159
諷	-19160
壜	-19161
艤	-19162
俘	-19163
閻	-19164
鮭	-19165
滲	-19166
鰹	-19167
鵡	-19168
拂	-19169
箏	-19170
悄	-19171
疊	-19172
穣	-19173
繭	-19174
隧	-19175
餃	-19176
鹽	-19177
ν	-19178
碩	-19179
⇒	-19180
翰	-19181
莱	-19182
賽	-19183
鱈	-19184
冀	-19185
紘	-19186
菖	-19187
謗	-19188
夙	-19189
ي	-19190
簒	-19191
衍	-19192
│	-19193
杓	-19194
價	-19195
凋	-19196
藥	-19197
誹	-19198
筏	-19199
躙	-19200
彭	-19201
攪	-19202
錮	-19203
婁	-19204
槇	-19205
跫	-19206
狡	-19207
蹂	-19208
蹲	-19209
漲	-19210
贖	-19211
截	-19212
桿	-19213
舐	-19214
р	-19215
髏	-19216
髑	-19217
拜	-19218
醫	-19219
銑	-19220
俤	-19221
埒	-19222
奸	-19223
癇	-19224
■	-19225
諒	-19226
撞	-19227
魄	-19228
祢	-19229
寶	-19230
憬	-19231
匍	-19232
哥	-19233
敲	-19234
燦	-19235
綸	-19236
鬢	-19237
僭	-19238
麾	-19239
à	-19240
褌	-19241
徊	-19242
濶	-19243
顰	-19244
邁	-19245
靱	-19246
鷗	-19247
泛	-19248
頽	-19249
◎	-19250
疱	-19251
喇	-19252
戎	-19253
溌	-19254
馮	-19255
蕾	-19256
什	-19257
凪	-19258
φ	-19259
搦	-19260
澱	-19261
蜻	-19262
范	-19263
騷	-19264
偃	-19265
欝	-19266
Δ	-19267
棍	-19268
鸚	-19269
蕪	-19270
掬	-19271
檣	-19272
頌	-19273
跪	-19274
凭	-19275
貶	-19276
逍	-19277
珈	-19278
糟	-19279
δ	-19280
諌	-19281
旱	-19282
椋	-19283
繃	-19284
š	-19285
霰	-19286
孕	-19287
趨	-19288
毯	-19289
溪	-19290
頚	-19291
∞	-19292
蛉	-19293
蹈	-19294
炬	-19295
臂	-19296
褪	-19297
ر	-19298
俟	-19299
⦅	-19300
劃	-19301
樟	-19302
疼	-19303
閔	-19304
寐	-19305
怎	-19306
谿	-19307
徘	-19308
絲	-19309
豐	-19310
⦆	-19311
狹	-19312
崑	-19313
捺	-19314
眷	-19315
迹	-19316
汀	-19317
霖	-19318
漣	-19319
砺	-19320
詛	-19321
赭	-19322
琲	-19323
م	-19324
蕨	-19325
誼	-19326
巽	-19327
膣	-19328
訶	-19329
槐	-19330
砧	-19331
躁	-19332
«	-19333
幟	-19334
辯	-19335
廂	-19336
碇	-19337
聾	-19338
蛹	-19339
哭	-19340
舅	-19341
駭	-19342
臘	-19343
奕	-19344
歿	-19345
鯱	-19346
撓	-19347
痒	-19348
腋	-19349
椰	-19350
甦	-19351
鞆	-19352
暈	-19353
蛾	-19354
肚	-19355
菰	-19356
弗	-19357
穎	-19358
笏	-19359
裝	-19360
鮒	-19361
繞	-19362
苞	-19363
遲	-19364
≒	-19365
摯	-19366
脹	-19367
鳰	-19368
Ω	-19369
咀	-19370
槙	-19371
л	-19372
柩	-19373
灼	-19374
禊	-19375
τ	-19376
←	-19377
籾	-19378
熔	-19379
茄	-19380
鄙	-19381
啄	-19382
♪	-19383
莉	-19384
杷	-19385
狄	-19386
臀	-19387
蔚	-19388
齎	-19389
掏	-19390
掾	-19391
櫂	-19392
眸	-19393
菟	-19394
鵞	-19395
擡	-19396
戌	-19397
陝	-19398
壓	-19399
痰	-19400
蛸	-19401
辟	-19402
و	-19403
嚥	-19404
潘	-19405
僞	-19406
悸	-19407
搖	-19408
箭	-19409
蕗	-19410
鼈	-19411
兌	-19412
琳	-19413
膀	-19414
蝮	-19415
姶	-19416
毬	-19417
窄	-19418
鏑	-19419
胱	-19420
收	-19421
ç	-19422
滸	-19423
禹	-19424
羹	-19425
薯	-19426
»	-19427
瞥	-19428
帛	-19429
邱	-19430
辭	-19431
裴	-19432
猾	-19433
鋤	-19434
宸	-19435
區	-19436
壷	-19437
筵	-19438
â	-19439
ρ	-19440
坡	-19441
罐	-19442
岱	-19443
繼	-19444
崋	-19445
并	-19446
挾	-19447
曠	-19448
熹	-19449
篆	-19450
鈔	-19451
閩	-19452
驕	-19453
с	-19454
齊	-19455
ō	-19456
瀞	-19457
稗	-19458
в	-19459
屬	-19460
欅	-19461
凛	-19462
煥	-19463
蚤	-19464
剌	-19465
衾	-19466
桝	-19467
亙	-19468
枡	-19469
竝	-19470
黍	-19471
寥	-19472
纒	-19473
焙	-19474
舁	-19475
鉉	-19476
鉦	-19477
呵	-19478
啜	-19479
舒	-19480
轡	-19481
涜	-19482
鑽	-19483
〆	-19484
枇	-19485
躰	-19486
闍	-19487
朕	-19488
匐	-19489
娩	-19490
燵	-19491
釦	-19492
豈	-19493
ο	-19494
癩	-19495
羌	-19496
蠢	-19497
ب	-19498
⇔	-19499
涸	-19500
絢	-19501
É	-19502
儂	-19503
歡	-19504
驛	-19505
齒	-19506
扨	-19507
菫	-19508
剪	-19509
淨	-19510
痣	-19511
矜	-19512
袍	-19513
辨	-19514
莨	-19515
赳	-19516
∀	-19517
籤	-19518
脾	-19519
苟	-19520
鍔	-19521
壞	-19522
姚	-19523
搗	-19524
歐	-19525
躾	-19526
鬪	-19527
橇	-19528
赧	-19529
θ	-19530
瀋	-19531
鬘	-19532
蜃	-19533
馭	-19534
т	-19535
恕	-19536
框	-19537
縊	-19538
鵠	-19539
哄	-19540
婉	-19541
孰	-19542
瞻	-19543
覽	-19544
壯	-19545
◇	-19546
躅	-19547
恪	-19548
懼	-19549
撹	-19550
斂	-19551
柘	-19552
禦	-19553
籐	-19554
茜	-19555
簪	-19556
龕	-19557
嘯	-19558
氈	-19559
睫	-19560
魃	-19561
َ	-19562
蠣	-19563
邂	-19564
躑	-19565
吼	-19566
叭	-19567
楷	-19568
逅	-19569
劍	-19570
專	-19571
攸	-19572
袷	-19573
∈	-19574
檢	-19575
筮	-19576
娑	-19577
舳	-19578
瑕	-19579
♭	-19580
彈	-19581
矣	-19582
穆	-19583
к	-19584
梧	-19585
迸	-19586
寞	-19587
嶮	-19588
彪	-19589
晏	-19590
簀	-19591
蟠	-19592
鮨	-19593
怜	-19594
卍	-19595
戔	-19596
搏	-19597
綽	-19598
晰	-19599
畸	-19600
襷	-19601
跣	-19602
祕	-19603
邉	-19604
愍	-19605
槿	-19606
瀾	-19607
冲	-19608
拌	-19609
琥	-19610
ร	-19611
戲	-19612
蹊	-19613
險	-19614
爐	-19615
剋	-19616
樊	-19617
驤	-19618
嬪	-19619
朶	-19620
猜	-19621
饑	-19622
庖	-19623
滓	-19624
珀	-19625
岑	-19626
惇	-19627
畦	-19628
瀉	-19629
謄	-19630
侘	-19631
哩	-19632
奘	-19633
漉	-19634
繻	-19635
踞	-19636
陋	-19637
呀	-19638
囮	-19639
樵	-19640
糎	-19641
匙	-19642
溯	-19643
皓	-19644
飄	-19645
栞	-19646
稻	-19647
翫	-19648
艱	-19649
蕊	-19650
渫	-19651
澹	-19652
驅	-19653
齟	-19654
咫	-19655
雙	-19656
霍	-19657
齬	-19658
د	-19659
坤	-19660
獻	-19661
萼	-19662
า	-19663
哈	-19664
慇	-19665
懃	-19666
濛	-19667
澁	-19668
鰯	-19669
鱒	-19670
ú	-19671
Σ	-19672
抉	-19673
ι	-19674
嗤	-19675
柾	-19676
顯	-19677
廢	-19678
旁	-19679
竦	-19680
膽	-19681
虻	-19682
誂	-19683
鄴	-19684
劒	-19685
咋	-19686
咤	-19687
閾	-19688
鴫	-19689
柢	-19690
鎚	-19691
饌	-19692
倖	-19693
絣	-19694
麥	-19695
ē	-19696
啖	-19697
謨	-19698
÷	-19699
侈	-19700
惱	-19701
炙	-19702
蘂	-19703
鐸	-19704
黴	-19705
‘	-19706
撚	-19707
喀	-19708
礦	-19709
聰	-19710
睜	-19711
扈	-19712
涵	-19713
艾	-19714
葭	-19715
龐	-19716
偈	-19717
綏	-19718
蜷	-19719
咒	-19720
瑛	-19721
襞	-19722
飫	-19723
≪	-19724
凉	-19725
烙	-19726
猷	-19727
疽	-19728
霽	-19729
樓	-19730
閨	-19731
ñ	-19732
凜	-19733
叟	-19734
茉	-19735
玻	-19736
躓	-19737
盂	-19738
笙	-19739
舛	-19740
ß	-19741
└	-19742
匪	-19743
營	-19744
麩	-19745
蒜	-19746
蝸	-19747
軈	-19748
髴	-19749
彧	-19750
悧	-19751
薗	-19752
踰	-19753
鋲	-19754
髣	-19755
櫨	-19756
〒	-19757
渭	-19758
繹	-19759
齧	-19760
♥	-19761
桧	-19762
沒	-19763
腦	-19764
鴈	-19765
ː	-19766
匝	-19767
啣	-19768
羲	-19769
蝗	-19770
瓚	-19771
茗	-19772
俎	-19773
嗄	-19774
孃	-19775
ô	-19776
ヸ	-19777
徂	-19778
浬	-19779
篁	-19780
ς	-19781
兀	-19782
剽	-19783
憺	-19784
ั	-19785
鮑	-19786
偕	-19787
樅	-19788
蒋	-19789
佗	-19790
祁	-19791
詭	-19792
捩	-19793
鑵	-19794
伜	-19795
吝	-19796
悍	-19797
黨	-19798
獸	-19799
跛	-19800
晧	-19801
癸	-19802
迚	-19803
萠	-19804
燧	-19805
穗	-19806
蓼	-19807
瑾	-19808
繇	-19809
韶	-19810
黛	-19811
屆	-19812
徠	-19813
沮	-19814
盥	-19815
臧	-19816
陷	-19817
厠	-19818
芻	-19819
鏃	-19820
奎	-19821
驢	-19822
鬨	-19823
𤢖	-19824
邯	-19825
塘	-19826
縺	-19827
鋪	-19828
猩	-19829
繡	-19830
餉	-19831
𫝹	-19832
淆	-19833
蛤	-19834
鼾	-19835
м	-19836
س	-19837
鐙	-19838
栂	-19839
盜	-19840
鉞	-19841
≫	-19842
倆	-19843
奠	-19844
翡	-19845
莊	-19846
檄	-19847
砒	-19848
稠	-19849
虱	-19850
蹠	-19851
闢	-19852
駝	-19853
曉	-19854
枷	-19855
祗	-19856
雹	-19857
〽	-19858
兗	-19859
懶	-19860
煬	-19861
禧	-19862
肆	-19863
鯰	-19864
η	-19865
┌	-19866
潭	-19867
隴	-19868
ı	-19869
欒	-19870
咆	-19871
杢	-19872
盈	-19873
籃	-19874
縷	-19875
諍	-19876
銜	-19877
勁	-19878
杣	-19879
矧	-19880
苺	-19881
衒	-19882
闕	-19883
ə	-19884
ा	-19885
哮	-19886
揷	-19887
暉	-19888
糺	-19889
薛	-19890
•	-19891
嫂	-19892
褥	-19893
舫	-19894
薮	-19895
褻	-19896
嚼	-19897
慥	-19898
掉	-19899
昴	-19900
聟	-19901
躬	-19902
苻	-19903
у	-19904
仗	-19905
篩	-19906
粍	-19907
郃	-19908
ˈ	-19909
悌	-19910
瀟	-19911
謠	-19912
輜	-19913
拱	-19914
柊	-19915
痍	-19916
粲	-19917
醇	-19918
鉋	-19919
駱	-19920
噤	-19921
拼	-19922
鞨	-19923
籬	-19924
胥	-19925
萊	-19926
蜥	-19927
寳	-19928
囀	-19929
彳	-19930
檗	-19931
蜴	-19932
鼬	-19933
稷	-19934
紬	-19935
譽	-19936
讓	-19937
笞	-19938
慘	-19939
滔	-19940
ê	-19941
κ	-19942
塲	-19943
擴	-19944
燼	-19945
窘	-19946
幀	-19947
戈	-19948
楡	-19949
讚	-19950
靺	-19951
̄	-19952
嬶	-19953
慳	-19954
澎	-19955
辮	-19956
碎	-19957
篝	-19958
蠍	-19959
牀	-19960
瞠	-19961
軻	-19962
逡	-19963
笊	-19964
屁	-19965
烹	-19966
獰	-19967
瑳	-19968
闡	-19969
ぅ	-19970
彅	-19971
孚	-19972
晁	-19973
棕	-19974
泗	-19975
爰	-19976
闌	-19977
й	-19978
ぉ	-19979
巓	-19980
弉	-19981
邨	-19982
渺	-19983
筍	-19984
縹	-19985
鎬	-19986
鎭	-19987
勸	-19988
塙	-19989
尭	-19990
燗	-19991
眇	-19992
梃	-19993
瑣	-19994
盪	-19995
褸	-19996
